<pad>	0
<s>	0
</s>	0
<unk>	0
▁t	-0
▁a	-1
in	-2
he	-3
re	-4
on	-5
er	-6
▁the	-7
▁s	-8
▁w	-9
or	-10
at	-11
nd	-12
ou	-13
▁c	-14
it	-15
es	-16
▁f	-17
is	-18
ing	-19
en	-20
▁b	-21
▁p	-22
▁o	-23
an	-24
ed	-25
▁to	-26
al	-27
▁m	-28
ar	-29
▁and	-30
▁in	-31
▁of	-32
▁d	-33
le	-34
ic	-35
as	-36
▁h	-37
om	-38
ion	-39
▁th	-40
il	-41
▁T	-42
▁l	-43
ent	-44
ve	-45
▁I	-46
ro	-47
st	-48
▁y	-49
▁e	-50
▁re	-51
▁n	-52
▁S	-53
▁g	-54
et	-55
ct	-56
▁A	-57
▁C	-58
▁you	-59
ly	-60
ay	-61
id	-62
▁for	-63
▁on	-64
▁is	-65
ot	-66
▁be	-67
ow	-68
ol	-69
am	-70
ac	-71
ig	-72
us	-73
ad	-74
el	-75
▁M	-76
im	-77
ver	-78
ith	-79
ut	-80
▁st	-81
▁P	-82
ation	-83
▁with	-84
ur	-85
▁B	-86
▁that	-87
ir	-88
▁W	-89
ch	-90
▁he	-91
▁it	-92
▁The	-93
ce	-94
ill	-95
ers	-96
un	-97
▁al	-98
▁D	-99
ul	-100
▁an	-101
▁H	-102
▁F	-103
out	-104
ra	-105
ke	-106
▁pro	-107
▁wh	-108
▁as	-109
▁are	-110
se	-111
ter	-112
▁we	-113
▁ha	-114
▁R	-115
oo	-116
if	-117
ge	-118
our	-119
pp	-120
▁at	-121
ate	-122
ess	-123
▁com	-124
▁or	-125
▁con	-126
▁L	-127
her	-128
ore	-129
est	-130
▁fr	-131
ment	-132
igh	-133
▁-	-134
ab	-135
▁N	-136
▁se	-137
▁ne	-138
ld	-139
ort	-140
▁G	-141
▁E	-142
ri	-143
ist	-144
▁(	-145
▁your	-146
op	-147
▁O	-148
▁ex	-149
em	-150
ure	-151
ity	-152
▁r	-153
ant	-154
qu	-155
▁v	-156
▁was	-157
art	-158
ust	-159
▁have	-160
ive	-161
um	-162
▁this	-163
▁from	-164
pe	-165
▁de	-166
oc	-167
▁sh	-168
th	-169
ain	-170
up	-171
ies	-172
▁will	-173
▁by	-174
ight	-175
▁ch	-176
and	-177
os	-178
▁can	-179
ie	-180
nt	-181
all	-182
▁us	-183
ome	-184
▁not	-185
ard	-186
ud	-187
▁le	-188
res	-189
▁J	-190
ast	-191
..	-192
ost	-193
▁pl	-194
ear	-195
▁ab	-196
ack	-197
▁su	-198
iv	-199
▁wor	-200
gh	-201
▁all	-202
rou	-203
ide	-204
ould	-205
▁j	-206
ell	-207
ial	-208
te	-209
ak	-210
ine	-211
od	-212
ag	-213
are	-214
▁has	-215
ice	-216
▁U	-217
▁Th	-218
▁do	-219
age	-220
▁k	-221
ook	-222
fe	-223
▁ad	-224
▁me	-225
ip	-226
▁In	-227
▁comp	-228
▁but	-229
▁up	-230
▁out	-231
ake	-232
per	-233
red	-234
▁whe	-235
ions	-236
ally	-237
pt	-238
ry	-239
og	-240
one	-241
▁more	-242
ail	-243
able	-244
ind	-245
▁my	-246
ite	-247
▁our	-248
ther	-249
▁en	-250
▁“	-251
very	-252
▁Y	-253
▁sa	-254
▁so	-255
ich	-256
ime	-257
cc	-258
▁cl	-259
ong	-260
▁their	-261
▁K	-262
ated	-263
ood	-264
ame	-265
orm	-266
▁St	-267
▁they	-268
▁one	-269
▁te	-270
ber	-271
ace	-272
ike	-273
iz	-274
▁about	-275
so	-276
ous	-277
du	-278
ick	-279
ase	-280
ans	-281
▁"	-282
▁V	-283
pl	-284
▁cont	-285
act	-286
ia	-287
▁im	-288
▁work	-289
▁un	-290
▁who	-291
ree	-292
cl	-293
ire	-294
▁fe	-295
ign	-296
▁off	-297
▁his	-298
▁man	-299
ue	-300
ff	-301
ance	-302
▁go	-303
ll	-304
ach	-305
▁year	-306
▁new	-307
▁tr	-308
ays	-309
ne	-310
reat	-311
▁It	-312
ction	-313
ub	-314
ib	-315
ult	-316
▁app	-317
erv	-318
und	-319
▁We	-320
ap	-321
▁Ch	-322
ass	-323
▁qu	-324
ep	-325
▁res	-326
ary	-327
ark	-328
▁sp	-329
▁per	-330
ations	-331
ile	-332
ove	-333
form	-334
▁int	-335
▁get	-336
▁also	-337
▁time	-338
▁which	-339
ount	-340
ven	-341
▁like	-342
own	-343
▁other	-344
ents	-345
▁some	-346
ond	-347
ord	-348
▁any	-349
ings	-350
vel	-351
av	-352
▁been	-353
ical	-354
▁over	-355
▁part	-356
ress	-357
▁This	-358
▁dis	-359
ks	-360
▁He	-361
ors	-362
ence	-363
▁said	-364
▁sc	-365
▁rec	-366
▁ar	-367
ition	-368
▁them	-369
▁ag	-370
▁when	-371
▁pe	-372
ild	-373
port	-374
▁her	-375
ound	-376
ough	-377
▁kn	-378
ose	-379
ob	-380
irst	-381
low	-382
▁just	-383
mer	-384
int	-385
▁ro	-386
ov	-387
ck	-388
ish	-389
▁what	-390
oy	-391
▁pr	-392
ru	-393
▁spe	-394
▁pre	-395
▁there	-396
ens	-397
wn	-398
▁acc	-399
day	-400
▁if	-401
ren	-402
▁than	-403
▁would	-404
▁need	-405
▁Re	-406
▁had	-407
vers	-408
▁its	-409
▁were	-410
ink	-411
fter	-412
ning	-413
▁am	-414
ater	-415
...	-416
▁des	-417
old	-418
itt	-419
clud	-420
ade	-421
rough	-422
▁tw	-423
▁into	-424
lp	-425
ory	-426
use	-427
ople	-428
ool	-429
ang	-430
▁first	-431
▁how	-432
▁bec	-433
▁help	-434
lic	-435
hed	-436
ons	-437
▁add	-438
anc	-439
ft	-440
▁make	-441
amp	-442
gr	-443
▁bl	-444
▁look	-445
▁–	-446
▁Wh	-447
▁prov	-448
▁col	-449
▁includ	-450
▁people	-451
▁comm	-452
▁produ	-453
▁You	-454
▁Ne	-455
ual	-456
▁know	-457
ful	-458
▁she	-459
ian	-460
ments	-461
ates	-462
iew	-463
round	-464
▁em	-465
▁every	-466
▁back	-467
▁only	-468
▁serv	-469
tern	-470
les	-471
ious	-472
▁no	-473
▁may	-474
rent	-475
▁through	-476
▁bu	-477
ict	-478
▁most	-479
cts	-480
ating	-481
▁see	-482
▁want	-483
▁two	-484
▁ph	-485
com	-486
pport	-487
▁As	-488
xt	-489
we	-490
ities	-491
ices	-492
iss	-493
▁use	-494
▁well	-495
ont	-496
▁bet	-497
▁after	-498
▁If	-499
ise	-500
hing	-501
▁ind	-502
ause	-503
▁play	-504
▁Se	-505
ph	-506
▁und	-507
je	-508
▁&	-509
▁co	-510
ife	-511
▁|	-512
ock	-513
ily	-514
▁stud	-515
lect	-516
row	-517
▁act	-518
ting	-519
iness	-520
▁fl	-521
hen	-522
▁years	-523
▁Com	-524
▁Un	-525
urn	-526
ts	-527
▁$	-528
enc	-529
aw	-530
▁these	-531
▁tra	-532
▁An	-533
fore	-534
▁cons	-535
▁under	-536
als	-537
cial	-538
ange	-539
▁exper	-540
bs	-541
aking	-542
▁ke	-543
oth	-544
▁now	-545
ures	-546
ational	-547
▁very	-548
▁Pro	-549
▁wee	-550
▁bus	-551
▁good	-552
▁gu	-553
ased	-554
vent	-555
▁And	-556
formation	-557
▁many	-558
▁sm	-559
get	-560
▁way	-561
any	-562
▁reg	-563
erson	-564
oint	-565
ific	-566
ward	-567
▁De	-568
ert	-569
ility	-570
▁start	-571
▁fin	-572
▁dif	-573
▁could	-574
rit	-575
lease	-576
▁great	-577
▁imp	-578
ork	-579
uch	-580
▁day	-581
fect	-582
▁rem	-583
▁Sh	-584
yst	-585
▁rel	-586
ience	-587
ible	-588
▁even	-589
▁For	-590
uring	-591
ty	-592
▁show	-593
▁high	-594
oss	-595
ics	-596
▁sec	-597
ull	-598
▁own	-599
nds	-600
velop	-601
▁inv	-602
▁where	-603
▁here	-604
▁don	-605
▁inc	-606
▁down	-607
).	-608
▁ent	-609
ident	-610
hes	-611
olog	-612
cess	-613
▁loc	-614
arch	-615
▁right	-616
ble	-617
▁then	-618
chool	-619
▁home	-620
▁should	-621
▁Al	-622
▁New	-623
elf	-624
alth	-625
The	-626
▁ass	-627
ied	-628
▁br	-629
its	-630
ited	-631
▁find	-632
ath	-633
air	-634
ular	-635
▁read	-636
▁too	-637
▁ac	-638
hip	-639
▁av	-640
▁set	-641
ix	-642
▁car	-643
▁fam	-644
ner	-645
▁information	-646
▁mon	-647
gan	-648
line	-649
▁best	-650
▁last	-651
ys	-652
▁min	-653
gram	-654
▁take	-655
io	-656
▁design	-657
▁Cl	-658
pect	-659
ract	-660
▁long	-661
ason	-662
▁did	-663
▁inst	-664
▁much	-665
omet	-666
▁che	-667
||	-668
erm	-669
▁Be	-670
▁business	-671
ystem	-672
▁because	-673
▁before	-674
other	-675
ank	-676
▁dec	-677
ues	-678
▁But	-679
▁att	-680
▁ins	-681
▁Fr	-682
.”	-683
▁made	-684
▁team	-685
ative	-686
▁call	-687
▁Le	-688
▁him	-689
pr	-690
▁sur	-691
pen	-692
atch	-693
▁cre	-694
rib	-695
me	-696
▁think	-697
ject	-698
ollow	-699
az	-700
▁again	-701
▁world	-702
way	-703
ax	-704
ale	-705
ug	-706
▁Ad	-707
▁art	-708
▁mem	-709
▁does	-710
alk	-711
),	-712
▁vis	-713
arket	-714
▁being	-715
▁pres	-716
ave	-717
▁develop	-718
▁person	-719
oun	-720
▁requ	-721
arn	-722
ustom	-723
ower	-724
chn	-725
rest	-726
▁inte	-727
arm	-728
ient	-729
▁life	-730
▁those	-731
ener	-732
▁diffe	-733
▁such	-734
ins	-735
▁med	-736
ng	-737
ivers	-738
ince	-739
ouse	-740
▁support	-741
ving	-742
▁while	-743
ash	-744
irect	-745
▁Ar	-746
▁pol	-747
view	-748
land	-749
▁sk	-750
▁provid	-751
ss	-752
unity	-753
ier	-754
▁lead	-755
▁ra	-756
▁Te	-757
▁each	-758
▁around	-759
▁book	-760
der	-761
▁love	-762
▁free	-763
▁used	-764
ced	-765
akes	-766
▁care	-767
▁end	-768
read	-769
▁mod	-770
ailable	-771
▁ser	-772
▁comple	-773
▁post	-774
▁run	-775
▁gr	-776
ather	-777
▁disc	-778
▁sim	-779
ric	-780
▁program	-781
ality	-782
▁ret	-783
▁pub	-784
ces	-785
ional	-786
ages	-787
ually	-788
▁bo	-789
▁cur	-790
▁ed	-791
ines	-792
imes	-793
ton	-794
ives	-795
▁All	-796
▁det	-797
▁really	-798
roup	-799
ple	-800
oad	-801
ars	-802
▁eas	-803
ets	-804
▁On	-805
▁child	-806
▁system	-807
▁There	-808
▁So	-809
▁num	-810
iel	-811
au	-812
ize	-813
▁follow	-814
▁trans	-815
."	-816
led	-817
ene	-818
▁count	-819
▁going	-820
▁found	-821
,”	-822
▁top	-823
ah	-824
▁form	-825
▁char	-826
▁somet	-827
iet	-828
▁three	-829
ittle	-830
▁inter	-831
▁list	-832
▁cour	-833
ames	-834
man	-835
▁still	-836
▁Bl	-837
▁fun	-838
▁How	-839
▁month	-840
▁available	-841
▁place	-842
▁del	-843
ature	-844
▁Pl	-845
▁custom	-846
ute	-847
ness	-848
▁though	-849
▁They	-850
▁feel	-851
ways	-852
▁prof	-853
▁cle	-854
▁both	-855
▁To	-856
▁few	-857
▁sub	-858
cept	-859
▁aut	-860
orn	-861
meric	-862
▁str	-863
▁happ	-864
▁week	-865
▁sign	-866
▁open	-867
▁hand	-868
ved	-869
▁gl	-870
▁pur	-871
▁say	-872
uc	-873
▁report	-874
▁health	-875
▁game	-876
▁adv	-877
att	-878
▁rep	-879
▁market	-880
ital	-881
▁different	-882
oot	-883
ired	-884
orth	-885
▁frie	-886
bers	-887
▁keep	-888
▁same	-889
ering	-890
tt	-891
▁lot	-892
▁Ex	-893
▁She	-894
▁point	-895
▁Col	-896
ween	-897
▁techn	-898
▁family	-899
▁ev	-900
▁i	-901
ology	-902
▁exp	-903
iqu	-904
▁ext	-905
▁school	-906
ining	-907
▁little	-908
▁using	-909
,"	-910
▁process	-911
ished	-912
atur	-913
▁company	-914
▁lar	-915
ata	-916
▁including	-917
▁Sc	-918
ross	-919
iving	-920
oh	-921
ants	-922
▁next	-923
▁plan	-924
▁win	-925
▁Americ	-926
ott	-927
▁fil	-928
▁real	-929
▁during	-930
▁Tr	-931
▁between	-932
thing	-933
ized	-934
▁water	-935
ger	-936
▁sol	-937
▁Ph	-938
▁import	-939
▁Q	-940
ody	-941
cent	-942
▁state	-943
▁What	-944
gg	-945
ield	-946
▁things	-947
ik	-948
ves	-949
▁met	-950
arly	-951
els	-952
▁come	-953
aut	-954
ists	-955
be	-956
▁allow	-957
▁big	-958
less	-959
aint	-960
reen	-961
▁mus	-962
▁put	-963
▁contin	-964
uss	-965
▁Or	-966
▁rece	-967
▁experience	-968
ware	-969
▁service	-970
▁opt	-971
▁build	-972
cer	-973
self	-974
▁small	-975
▁dri	-976
▁days	-977
▁appro	-978
ined	-979
iversity	-980
ex	-981
▁organ	-982
▁full	-983
ling	-984
▁since	-985
▁cent	-986
▁always	-987
▁rest	-988
▁try	-989
▁phot	-990
▁better	-991
▁cr	-992
▁sure	-993
▁When	-994
ution	-995
▁pat	-996
▁online	-997
▁pri	-998
▁quest	-999
▁ref	-1000
▁Ind	-1001
▁second	-1002
▁pass	-1003
▁something	-1004
▁var	-1005
illion	-1006
▁bel	-1007
▁interest	-1008
rand	-1009
ever	-1010
over	-1011
▁iss	-1012
▁partic	-1013
▁class	-1014
▁poss	-1015
▁gener	-1016
▁def	-1017
▁group	-1018
▁tri	-1019
▁mov	-1020
ffect	-1021
▁perform	-1022
▁hard	-1023
▁direct	-1024
▁Z	-1025
▁pay	-1026
pping	-1027
ours	-1028
▁With	-1029
▁result	-1030
▁bro	-1031
▁today	-1032
▁head	-1033
▁special	-1034
gy	-1035
▁—	-1036
▁sl	-1037
ps	-1038
▁ty	-1039
▁ve	-1040
ploy	-1041
ER	-1042
▁At	-1043
joy	-1044
▁stand	-1045
ms	-1046
work	-1047
ared	-1048
outh	-1049
▁another	-1050
▁ide	-1051
▁give	-1052
br	-1053
▁ann	-1054
▁Con	-1055
▁wom	-1056
▁provide	-1057
uck	-1058
▁got	-1059
▁cor	-1060
ccess	-1061
ior	-1062
▁Chr	-1063
ote	-1064
oor	-1065
▁Res	-1066
oney	-1067
▁meet	-1068
▁students	-1069
▁resp	-1070
istr	-1071
▁current	-1072
ense	-1073
ately	-1074
▁wr	-1075
▁without	-1076
ision	-1077
▁conf	-1078
▁Our	-1079
ients	-1080
rence	-1081
ok	-1082
ium	-1083
▁old	-1084
▁area	-1085
ley	-1086
ope	-1087
ards	-1088
▁number	-1089
▁four	-1090
▁bre	-1091
▁cost	-1092
aj	-1093
ems	-1094
ered	-1095
▁able	-1096
ically	-1097
▁soc	-1098
▁val	-1099
▁Sp	-1100
▁invest	-1101
▁must	-1102
con	-1103
▁access	-1104
▁services	-1105
▁unt	-1106
raph	-1107
ats	-1108
ird	-1109
▁ask	-1110
▁working	-1111
▁never	-1112
▁US	-1113
▁Cent	-1114
iver	-1115
▁No	-1116
stand	-1117
ww	-1118
▁webs	-1119
▁proble	-1120
▁public	-1121
▁vide	-1122
ission	-1123
▁visit	-1124
▁important	-1125
ann	-1126
▁light	-1127
pped	-1128
▁fact	-1129
let	-1130
▁sal	-1131
▁level	-1132
▁order	-1133
▁fac	-1134
ged	-1135
▁Comm	-1136
▁My	-1137
▁test	-1138
▁might	-1139
▁exc	-1140
ral	-1141
▁rese	-1142
▁product	-1143
▁local	-1144
▁night	-1145
▁season	-1146
inal	-1147
▁el	-1148
▁incre	-1149
ember	-1150
▁site	-1151
rol	-1152
▁That	-1153
▁sing	-1154
ruct	-1155
ample	-1156
▁expl	-1157
▁Mar	-1158
▁spec	-1159
▁grow	-1160
▁let	-1161
▁ca	-1162
▁proper	-1163
▁less	-1164
ording	-1165
▁enjoy	-1166
▁ob	-1167
▁past	-1168
▁event	-1169
▁products	-1170
▁Man	-1171
▁'	-1172
▁inf	-1173
▁May	-1174
▁looking	-1175
▁food	-1176
here	-1177
lection	-1178
▁within	-1179
▁profess	-1180
▁Fe	-1181
▁Is	-1182
▁data	-1183
▁making	-1184
▁pop	-1185
ertain	-1186
▁until	-1187
ases	-1188
ories	-1189
ffic	-1190
enn	-1191
ency	-1192
▁children	-1193
ently	-1194
▁University	-1195
We	-1196
gin	-1197
sh	-1198
▁job	-1199
▁offer	-1200
▁law	-1201
ery	-1202
ains	-1203
ney	-1204
urs	-1205
▁pos	-1206
eng	-1207
utes	-1208
▁power	-1209
▁view	-1210
▁turn	-1211
▁eng	-1212
▁email	-1213
ential	-1214
tend	-1215
▁oper	-1216
▁sit	-1217
▁check	-1218
▁against	-1219
ieve	-1220
▁est	-1221
▁Pr	-1222
ream	-1223
ised	-1224
▁Br	-1225
ina	-1226
▁prote	-1227
ids	-1228
ode	-1229
▁room	-1230
▁contact	-1231
IN	-1232
▁community	-1233
med	-1234
to	-1235
▁addition	-1236
▁prom	-1237
▁says	-1238
▁intern	-1239
load	-1240
▁toget	-1241
▁together	-1242
▁Fl	-1243
▁away	-1244
ivid	-1245
▁impro	-1246
▁quality	-1247
▁leg	-1248
ator	-1249
▁dist	-1250
▁creat	-1251
ills	-1252
irl	-1253
hor	-1254
▁indust	-1255
▁complete	-1256
▁news	-1257
aring	-1258
iron	-1259
ique	-1260
ret	-1261
▁App	-1262
icle	-1263
iday	-1264
agement	-1265
ified	-1266
oci	-1267
▁supp	-1268
osed	-1269
ability	-1270
▁project	-1271
▁website	-1272
▁Car	-1273
iety	-1274
ane	-1275
por	-1276
!!	-1277
▁change	-1278
co	-1279
▁success	-1280
▁dep	-1281
bo	-1282
▁learn	-1283
▁include	-1284
▁Co	-1285
pend	-1286
▁fav	-1287
▁chang	-1288
ym	-1289
▁Ste	-1290
▁detail	-1291
ism	-1292
▁offic	-1293
▁Can	-1294
▁members	-1295
▁dr	-1296
arent	-1297
son	-1298
▁buy	-1299
▁easy	-1300
▁please	-1301
rap	-1302
▁Me	-1303
aster	-1304
▁applic	-1305
ising	-1306
ury	-1307
▁name	-1308
▁pract	-1309
▁times	-1310
atures	-1311
▁along	-1312
▁equ	-1313
▁present	-1314
▁One	-1315
▁large	-1316
▁money	-1317
▁beaut	-1318
atter	-1319
augh	-1320
▁Am	-1321
aterial	-1322
the	-1323
▁Cont	-1324
iting	-1325
▁activ	-1326
vern	-1327
RE	-1328
▁employ	-1329
▁la	-1330
aff	-1331
une	-1332
▁house	-1333
ready	-1334
Th	-1335
▁course	-1336
▁expect	-1337
▁.	-1338
▁needs	-1339
ored	-1340
▁air	-1341
▁left	-1342
▁Christ	-1343
▁thing	-1344
itions	-1345
ift	-1346
sc	-1347
ably	-1348
▁cap	-1349
ider	-1350
ived	-1351
lish	-1352
▁music	-1353
▁dra	-1354
min	-1355
▁why	-1356
▁En	-1357
yle	-1358
ohn	-1359
ump	-1360
ify	-1361
▁hist	-1362
ec	-1363
ron	-1364
by	-1365
▁bas	-1366
ern	-1367
▁hum	-1368
▁video	-1369
rie	-1370
▁sw	-1371
▁account	-1372
ON	-1373
ffe	-1374
alf	-1375
ocus	-1376
veral	-1377
▁below	-1378
▁soft	-1379
▁hot	-1380
▁These	-1381
▁short	-1382
ries	-1383
▁Eng	-1384
▁line	-1385
▁live	-1386
pecial	-1387
▁opport	-1388
enef	-1389
▁create	-1390
book	-1391
▁cond	-1392
▁beh	-1393
▁...	-1394
▁perfect	-1395
uly	-1396
▁ce	-1397
▁page	-1398
▁word	-1399
▁/	-1400
▁writ	-1401
AT	-1402
▁dem	-1403
ots	-1404
▁Med	-1405
▁mar	-1406
▁Please	-1407
fort	-1408
side	-1409
ows	-1410
mber	-1411
▁govern	-1412
▁pa	-1413
artment	-1414
▁already	-1415
▁Che	-1416
▁kind	-1417
▁After	-1418
▁enough	-1419
▁ever	-1420
▁research	-1421
ured	-1422
▁makes	-1423
▁following	-1424
▁million	-1425
▁Do	-1426
▁review	-1427
▁getting	-1428
▁dev	-1429
ten	-1430
itive	-1431
ush	-1432
▁friends	-1433
▁cut	-1434
▁conne	-1435
▁trad	-1436
ee	-1437
.,	-1438
▁record	-1439
room	-1440
▁treat	-1441
▁side	-1442
▁const	-1443
vious	-1444
▁Ass	-1445
▁case	-1446
▁having	-1447
ajor	-1448
▁tell	-1449
▁Count	-1450
▁personal	-1451
▁move	-1452
▁based	-1453
▁story	-1454
viron	-1455
ention	-1456
▁John	-1457
rop	-1458
▁Your	-1459
▁Serv	-1460
▁won	-1461
unch	-1462
ips	-1463
▁Des	-1464
▁minutes	-1465
uper	-1466
▁become	-1467
uture	-1468
▁possible	-1469
osp	-1470
oice	-1471
iam	-1472
▁talk	-1473
▁city	-1474
ights	-1475
▁across	-1476
▁vers	-1477
▁share	-1478
ization	-1479
▁done	-1480
▁bit	-1481
▁camp	-1482
▁pack	-1483
▁didn	-1484
▁comes	-1485
▁men	-1486
▁understand	-1487
ead	-1488
▁several	-1489
▁--	-1490
yn	-1491
▁:	-1492
▁country	-1493
▁Tw	-1494
▁hours	-1495
▁effect	-1496
▁cou	-1497
▁purch	-1498
iven	-1499
▁benef	-1500
ES	-1501
▁mil	-1502
▁women	-1503
uff	-1504
▁net	-1505
ividual	-1506
app	-1507
aces	-1508
▁percent	-1509
▁Comp	-1510
▁educ	-1511
wards	-1512
▁focus	-1513
▁often	-1514
▁material	-1515
ball	-1516
▁social	-1517
aim	-1518
▁elect	-1519
▁Wor	-1520
idd	-1521
ances	-1522
ination	-1523
uro	-1524
ides	-1525
ober	-1526
▁quick	-1527
▁Not	-1528
▁development	-1529
▁es	-1530
▁bring	-1531
▁return	-1532
orts	-1533
▁American	-1534
ister	-1535
ienc	-1536
▁doing	-1537
▁Bro	-1538
▁School	-1539
ript	-1540
▁pie	-1541
▁X	-1542
▁far	-1543
▁hold	-1544
arl	-1545
▁mult	-1546
ted	-1547
▁body	-1548
arr	-1549
err	-1550
▁Gr	-1551
of	-1552
mend	-1553
▁pot	-1554
ference	-1555
iful	-1556
ones	-1557
AN	-1558
▁wa	-1559
ners	-1560
▁fund	-1561
▁took	-1562
ograph	-1563
▁Here	-1564
▁tre	-1565
ource	-1566
lished	-1567
▁blog	-1568
oose	-1569
itc	-1570
AR	-1571
▁State	-1572
▁doesn	-1573
reet	-1574
conom	-1575
▁jo	-1576
vironment	-1577
▁deal	-1578
lement	-1579
▁others	-1580
▁City	-1581
▁Rep	-1582
▁came	-1583
▁called	-1584
▁started	-1585
▁sum	-1586
▁rele	-1587
org	-1588
▁Inst	-1589
nder	-1590
▁least	-1591
▁months	-1592
▁Intern	-1593
▁space	-1594
acy	-1595
▁Gu	-1596
▁mom	-1597
▁future	-1598
▁orig	-1599
▁compet	-1600
▁individual	-1601
oon	-1602
lege	-1603
▁went	-1604
▁occ	-1605
▁yet	-1606
▁young	-1607
rodu	-1608
▁clean	-1609
▁non	-1610
▁mind	-1611
▁told	-1612
ai	-1613
▁five	-1614
▁early	-1615
▁series	-1616
▁control	-1617
af	-1618
utions	-1619
▁term	-1620
▁major	-1621
oll	-1622
hers	-1623
ille	-1624
ape	-1625
▁games	-1626
ained	-1627
▁comb	-1628
▁means	-1629
▁pict	-1630
▁industry	-1631
▁chall	-1632
yl	-1633
▁tool	-1634
anks	-1635
▁Min	-1636
▁ens	-1637
▁lim	-1638
▁cover	-1639
ctor	-1640
▁fore	-1641
▁ago	-1642
AS	-1643
▁low	-1644
sw	-1645
▁key	-1646
fer	-1647
ama	-1648
▁x	-1649
▁heart	-1650
▁features	-1651
▁Ed	-1652
ilt	-1653
▁tem	-1654
rew	-1655
▁price	-1656
unic	-1657
▁store	-1658
fact	-1659
jects	-1660
▁offers	-1661
▁Ab	-1662
itor	-1663
back	-1664
▁once	-1665
▁specific	-1666
come	-1667
▁range	-1668
▁thought	-1669
ges	-1670
urity	-1671
ither	-1672
ateg	-1673
▁Bo	-1674
▁Jan	-1675
sel	-1676
▁pick	-1677
illed	-1678
▁Now	-1679
eral	-1680
▁God	-1681
▁Dr	-1682
▁favor	-1683
▁appear	-1684
year	-1685
▁More	-1686
▁York	-1687
ilities	-1688
▁Ke	-1689
▁Im	-1690
▁hope	-1691
▁redu	-1692
▁discuss	-1693
OR	-1694
ibr	-1695
▁happen	-1696
▁require	-1697
yr	-1698
▁Pe	-1699
▁However	-1700
atic	-1701
It	-1702
▁mean	-1703
▁single	-1704
nes	-1705
▁step	-1706
▁close	-1707
▁upd	-1708
▁land	-1709
▁break	-1710
▁ey	-1711
▁main	-1712
▁invol	-1713
most	-1714
anies	-1715
▁Pres	-1716
ourn	-1717
▁stay	-1718
▁government	-1719
▁Em	-1720
isk	-1721
isc	-1722
//	-1723
▁Sm	-1724
ony	-1725
▁field	-1726
de	-1727
▁priv	-1728
▁United	-1729
▁beautiful	-1730
resh	-1731
cle	-1732
▁Per	-1733
▁friend	-1734
▁everything	-1735
▁Qu	-1736
▁walk	-1737
ched	-1738
▁questions	-1739
▁added	-1740
▁hig	-1741
▁Cal	-1742
▁tax	-1743
aken	-1744
▁customers	-1745
▁strong	-1746
now	-1747
▁taking	-1748
▁install	-1749
for	-1750
://	-1751
aps	-1752
ging	-1753
▁Pol	-1754
▁charact	-1755
▁wond	-1756
▁South	-1757
▁begin	-1758
▁study	-1759
ources	-1760
▁North	-1761
▁Just	-1762
▁announ	-1763
ief	-1764
ensive	-1765
▁miss	-1766
▁recom	-1767
▁travel	-1768
▁certain	-1769
▁Park	-1770
▁address	-1771
▁problem	-1772
▁By	-1773
▁County	-1774
▁actually	-1775
play	-1776
▁staff	-1777
▁tot	-1778
▁half	-1779
▁mess	-1780
▁z	-1781
aur	-1782
ew	-1783
inc	-1784
ians	-1785
▁search	-1786
▁technology	-1787
▁girl	-1788
▁media	-1789
urther	-1790
time	-1791
▁watch	-1792
▁typ	-1793
▁known	-1794
▁official	-1795
▁manag	-1796
▁National	-1797
▁six	-1798
irm	-1799
▁Pre	-1800
▁wind	-1801
▁enc	-1802
gle	-1803
atural	-1804
ural	-1805
▁front	-1806
ublic	-1807
▁Add	-1808
▁sound	-1809
▁improve	-1810
▁Post	-1811
wh	-1812
▁dig	-1813
irt	-1814
▁lat	-1815
▁content	-1816
▁Su	-1817
▁Stud	-1818
▁anal	-1819
▁track	-1820
itted	-1821
▁Mc	-1822
▁face	-1823
▁training	-1824
▁link	-1825
▁click	-1826
icy	-1827
▁ste	-1828
▁web	-1829
▁someone	-1830
ison	-1831
▁Oct	-1832
arning	-1833
▁works	-1834
▁author	-1835
▁later	-1836
▁building	-1837
not	-1838
lebr	-1839
▁host	-1840
ocu	-1841
▁Gl	-1842
▁environment	-1843
abor	-1844
cted	-1845
▁Center	-1846
▁mor	-1847
▁log	-1848
▁unique	-1849
▁everyone	-1850
▁Reg	-1851
raft	-1852
▁port	-1853
▁provides	-1854
IS	-1855
gest	-1856
▁ener	-1857
▁fall	-1858
▁cred	-1859
▁seen	-1860
▁Dep	-1861
▁film	-1862
ask	-1863
▁Day	-1864
▁prep	-1865
▁oil	-1866
▁particular	-1867
▁professional	-1868
▁aud	-1869
fully	-1870
▁Aug	-1871
▁Euro	-1872
ests	-1873
▁particip	-1874
lex	-1875
ided	-1876
unities	-1877
▁bar	-1878
ibility	-1879
▁results	-1880
▁ident	-1881
▁recommend	-1882
roll	-1883
▁press	-1884
ED	-1885
▁card	-1886
▁While	-1887
▁Will	-1888
▁whole	-1889
▁Don	-1890
aturday	-1891
▁World	-1892
rain	-1893
▁companies	-1894
ino	-1895
▁Ge	-1896
▁High	-1897
urch	-1898
▁Friday	-1899
▁office	-1900
IT	-1901
pper	-1902
▁Bar	-1903
▁March	-1904
▁color	-1905
▁events	-1906
▁anything	-1907
▁issues	-1908
EN	-1909
ancial	-1910
▁mot	-1911
▁eff	-1912
▁prob	-1913
▁mag	-1914
▁areas	-1915
▁pret	-1916
resent	-1917
▁vol	-1918
▁Some	-1919
▁comput	-1920
▁respons	-1921
ops	-1922
▁points	-1923
▁Acc	-1924
▁performance	-1925
▁near	-1926
▁pain	-1927
ster	-1928
obile	-1929
▁red	-1930
▁print	-1931
▁cook	-1932
▁Apr	-1933
itch	-1934
umb	-1935
▁given	-1936
▁history	-1937
▁econom	-1938
pecially	-1939
crib	-1940
obal	-1941
....	-1942
▁feature	-1943
go	-1944
ili	-1945
ands	-1946
▁sell	-1947
▁designed	-1948
▁above	-1949
ches	-1950
▁maint	-1951
▁skin	-1952
▁text	-1953
▁aff	-1954
▁simple	-1955
eth	-1956
▁assist	-1957
IC	-1958
my	-1959
▁	-1960
e	-1961
t	-1962
a	-1963
o	-1964
i	-1965
n	-1966
s	-1967
r	-1968
h	-1969
l	-1970
d	-1971
c	-1972
u	-1973
m	-1974
p	-1975
g	-1976
f	-1977
y	-1978
w	-1979
b	-1980
.	-1981
v	-1982
,	-1983
k	-1984
T	-1985
I	-1986
S	-1987
A	-1988
-	-1989
C	-1990
0	-1991
1	-1992
M	-1993
P	-1994
B	-1995
x	-1996
2	-1997
W	-1998
D	-1999
R	-2000
E	-2001
H	-2002
F	-2003
L	-2004
O	-2005
N	-2006
’	-2007
'	-2008
:	-2009
G	-2010
j	-2011
)	-2012
3	-2013
(	-2014
z	-2015
5	-2016
q	-2017
"	-2018
U	-2019
4	-2020
J	-2021
9	-2022
6	-2023
8	-2024
V	-2025
Y	-2026
K	-2027
7	-2028
!	-2029
|	-2030
/	-2031
?	-2032
“	-2033
”	-2034
;	-2035
–	-2036
&	-2037
$	-2038
—	-2039
Q	-2040
X	-2041
%	-2042
Z	-2043
