<pad>	0
<s>	0
</s>	0
<unk>	0
▁t	-0
▁a	-1
in	-2
he	-3
re	-4
on	-5
er	-6
▁the	-7
▁s	-8
▁w	-9
or	-10
at	-11
nd	-12
ou	-13
▁c	-14
it	-15
es	-16
▁f	-17
is	-18
ing	-19
en	-20
▁b	-21
▁p	-22
▁o	-23
an	-24
ed	-25
▁to	-26
al	-27
▁m	-28
ar	-29
▁and	-30
▁in	-31
▁of	-32
▁d	-33
le	-34
ic	-35
as	-36
▁h	-37
om	-38
ion	-39
▁th	-40
il	-41
▁T	-42
▁l	-43
ent	-44
ve	-45
▁I	-46
ro	-47
st	-48
▁y	-49
▁e	-50
▁re	-51
▁n	-52
▁S	-53
▁g	-54
et	-55
ct	-56
▁A	-57
▁C	-58
▁you	-59
ly	-60
ay	-61
id	-62
▁for	-63
▁on	-64
▁is	-65
ot	-66
▁be	-67
ow	-68
ol	-69
am	-70
ac	-71
ig	-72
us	-73
ad	-74
el	-75
▁M	-76
im	-77
ver	-78
ith	-79
ut	-80
▁st	-81
▁P	-82
ation	-83
▁with	-84
ur	-85
▁B	-86
▁that	-87
ir	-88
▁W	-89
ch	-90
▁he	-91
▁it	-92
▁The	-93
ce	-94
ill	-95
ers	-96
un	-97
▁al	-98
▁D	-99
ul	-100
▁an	-101
▁H	-102
▁F	-103
out	-104
ra	-105
ke	-106
▁pro	-107
▁wh	-108
▁as	-109
▁are	-110
se	-111
ter	-112
▁we	-113
▁ha	-114
▁R	-115
oo	-116
if	-117
ge	-118
our	-119
pp	-120
▁at	-121
ate	-122
ess	-123
▁com	-124
▁or	-125
▁con	-126
▁L	-127
her	-128
ore	-129
est	-130
▁fr	-131
ment	-132
igh	-133
▁-	-134
ab	-135
▁N	-136
▁se	-137
▁ne	-138
ld	-139
ort	-140
▁G	-141
▁E	-142
ri	-143
ist	-144
▁(	-145
▁your	-146
op	-147
▁O	-148
▁ex	-149
em	-150
ure	-151
ity	-152
▁r	-153
ant	-154
qu	-155
▁v	-156
▁was	-157
art	-158
ust	-159
▁have	-160
ive	-161
um	-162
▁this	-163
▁from	-164
pe	-165
▁de	-166
oc	-167
▁sh	-168
th	-169
ain	-170
up	-171
ies	-172
▁will	-173
▁by	-174
ight	-175
▁ch	-176
and	-177
os	-178
▁can	-179
ie	-180
nt	-181
all	-182
▁us	-183
ome	-184
▁not	-185
ard	-186
ud	-187
▁le	-188
res	-189
▁J	-190
ast	-191
..	-192
ost	-193
▁pl	-194
ear	-195
▁ab	-196
ack	-197
▁su	-198
iv	-199
▁wor	-200
gh	-201
▁all	-202
rou	-203
ide	-204
ould	-205
▁j	-206
ell	-207
ial	-208
te	-209
ak	-210
ine	-211
od	-212
ag	-213
are	-214
▁has	-215
ice	-216
▁U	-217
▁Th	-218
▁do	-219
age	-220
▁k	-221
ook	-222
fe	-223
▁ad	-224
▁me	-225
ip	-226
▁In	-227
▁comp	-228
▁but	-229
▁up	-230
▁out	-231
ake	-232
per	-233
red	-234
▁whe	-235
ions	-236
ally	-237
pt	-238
ry	-239
og	-240
one	-241
▁more	-242
ail	-243
able	-244
ind	-245
▁my	-246
ite	-247
▁our	-248
ther	-249
▁en	-250
▁“	-251
very	-252
▁Y	-253
▁sa	-254
▁so	-255
ich	-256
ime	-257
cc	-258
▁cl	-259
ong	-260
▁their	-261
▁K	-262
ated	-263
ood	-264
ame	-265
orm	-266
▁St	-267
▁they	-268
▁one	-269
▁te	-270
ber	-271
ace	-272
ike	-273
iz	-274
▁about	-275
so	-276
ous	-277
du	-278
ick	-279
ase	-280
ans	-281
▁"	-282
▁V	-283
pl	-284
▁cont	-285
act	-286
ia	-287
▁im	-288
▁work	-289
▁un	-290
▁who	-291
ree	-292
cl	-293
ire	-294
▁fe	-295
ign	-296
▁off	-297
▁his	-298
▁man	-299
ue	-300
ff	-301
ance	-302
▁go	-303
ll	-304
ach	-305
▁year	-306
▁new	-307
▁tr	-308
ays	-309
ne	-310
reat	-311
▁It	-312
ction	-313
ub	-314
ib	-315
ult	-316
▁app	-317
erv	-318
und	-319
▁We	-320
ap	-321
▁Ch	-322
ass	-323
▁qu	-324
ep	-325
▁res	-326
ary	-327
ark	-328
▁sp	-329
▁per	-330
ations	-331
ile	-332
ove	-333
form	-334
▁int	-335
▁get	-336
▁also	-337
▁time	-338
▁which	-339
ount	-340
ven	-341
▁like	-342
own	-343
▁other	-344
ents	-345
▁some	-346
ond	-347
ord	-348
▁any	-349
ings	-350
vel	-351
av	-352
▁been	-353
ical	-354
▁over	-355
▁part	-356
ress	-357
▁This	-358
▁dis	-359
ks	-360
▁He	-361
ors	-362
ence	-363
▁said	-364
▁sc	-365
▁rec	-366
▁ar	-367
ition	-368
▁them	-369
▁ag	-370
▁when	-371
▁pe	-372
ild	-373
port	-374
▁her	-375
ound	-376
ough	-377
▁kn	-378
ose	-379
ob	-380
irst	-381
low	-382
▁just	-383
mer	-384
int	-385
▁ro	-386
ov	-387
ck	-388
ish	-389
▁what	-390
oy	-391
▁pr	-392
ru	-393
▁spe	-394
▁pre	-395
▁there	-396
ens	-397
wn	-398
▁acc	-399
day	-400
▁if	-401
ren	-402
▁than	-403
▁would	-404
▁need	-405
▁Re	-406
▁had	-407
vers	-408
▁its	-409
▁were	-410
ink	-411
fter	-412
ning	-413
▁am	-414
ater	-415
...	-416
▁des	-417
old	-418
itt	-419
clud	-420
ade	-421
rough	-422
▁tw	-423
▁into	-424
lp	-425
ory	-426
use	-427
ople	-428
ool	-429
ang	-430
▁first	-431
▁how	-432
▁bec	-433
▁help	-434
lic	-435
hed	-436
ons	-437
▁add	-438
anc	-439
ft	-440
▁make	-441
amp	-442
gr	-443
▁bl	-444
▁look	-445
▁–	-446
▁Wh	-447
▁prov	-448
▁col	-449
▁includ	-450
▁people	-451
▁comm	-452
▁produ	-453
▁You	-454
▁Ne	-455
ual	-456
▁know	-457
ful	-458
▁she	-459
ian	-460
ments	-461
ates	-462
iew	-463
round	-464
▁em	-465
▁every	-466
▁back	-467
▁only	-468
▁serv	-469
tern	-470
les	-471
ious	-472
▁no	-473
▁may	-474
rent	-475
▁through	-476
▁bu	-477
ict	-478
▁most	-479
cts	-480
ating	-481
▁see	-482
▁want	-483
▁two	-484
▁ph	-485
com	-486
pport	-487
▁As	-488
xt	-489
we	-490
ities	-491
ices	-492
iss	-493
▁use	-494
▁well	-495
ont	-496
▁bet	-497
▁after	-498
▁If	-499
ise	-500
hing	-501
▁ind	-502
ause	-503
▁play	-504
▁Se	-505
ph	-506
▁und	-507
je	-508
▁&	-509
▁co	-510
ife	-511
▁|	-512
ock	-513
ily	-514
▁stud	-515
lect	-516
row	-517
▁act	-518
ting	-519
iness	-520
▁fl	-521
hen	-522
▁years	-523
▁Com	-524
▁Un	-525
urn	-526
ts	-527
▁$	-528
enc	-529
aw	-530
▁these	-531
▁tra	-532
▁An	-533
fore	-534
▁cons	-535
▁under	-536
als	-537
cial	-538
ange	-539
▁exper	-540
bs	-541
aking	-542
▁ke	-543
oth	-544
▁now	-545
ures	-546
ational	-547
▁very	-548
▁Pro	-549
▁wee	-550
▁bus	-551
▁good	-552
▁gu	-553
ased	-554
vent	-555
▁And	-556
formation	-557
▁many	-558
▁sm	-559
get	-560
▁way	-561
any	-562
▁reg	-563
erson	-564
oint	-565
ific	-566
ward	-567
▁De	-568
ert	-569
ility	-570
▁start	-571
▁fin	-572
▁dif	-573
▁could	-574
rit	-575
lease	-576
▁great	-577
▁imp	-578
ork	-579
uch	-580
▁day	-581
fect	-582
▁rem	-583
▁Sh	-584
yst	-585
▁rel	-586
ience	-587
ible	-588
▁even	-589
▁For	-590
uring	-591
ty	-592
▁show	-593
▁high	-594
oss	-595
ics	-596
▁sec	-597
ull	-598
▁own	-599
nds	-600
velop	-601
▁inv	-602
▁where	-603
▁here	-604
▁don	-605
▁inc	-606
▁down	-607
).	-608
▁ent	-609
ident	-610
hes	-611
olog	-612
cess	-613
▁loc	-614
arch	-615
▁right	-616
ble	-617
▁then	-618
chool	-619
▁home	-620
▁should	-621
▁Al	-622
▁New	-623
elf	-624
alth	-625
The	-626
▁ass	-627
ied	-628
▁br	-629
its	-630
ited	-631
▁find	-632
ath	-633
air	-634
ular	-635
▁read	-636
▁too	-637
▁ac	-638
hip	-639
▁av	-640
▁set	-641
ix	-642
▁car	-643
▁fam	-644
ner	-645
▁information	-646
▁mon	-647
gan	-648
line	-649
▁best	-650
▁last	-651
ys	-652
▁min	-653
gram	-654
▁take	-655
io	-656
▁design	-657
▁Cl	-658
pect	-659
ract	-660
▁long	-661
ason	-662
▁did	-663
▁inst	-664
▁much	-665
omet	-666
▁che	-667
||	-668
erm	-669
▁Be	-670
▁business	-671
ystem	-672
▁because	-673
▁before	-674
other	-675
ank	-676
▁dec	-677
ues	-678
▁But	-679
▁att	-680
▁ins	-681
▁Fr	-682
.”	-683
▁made	-684
▁team	-685
ative	-686
▁call	-687
▁Le	-688
▁him	-689
pr	-690
▁sur	-691
pen	-692
atch	-693
▁cre	-694
rib	-695
me	-696
▁think	-697
ject	-698
ollow	-699
az	-700
▁again	-701
▁world	-702
way	-703
ax	-704
ale	-705
ug	-706
▁Ad	-707
▁art	-708
▁mem	-709
▁does	-710
alk	-711
),	-712
▁vis	-713
arket	-714
▁being	-715
▁pres	-716
ave	-717
▁develop	-718
▁person	-719
oun	-720
▁requ	-721
arn	-722
ustom	-723
ower	-724
chn	-725
rest	-726
▁inte	-727
arm	-728
ient	-729
▁life	-730
▁those	-731
ener	-732
▁diffe	-733
▁such	-734
ins	-735
▁med	-736
ng	-737
ivers	-738
ince	-739
ouse	-740
▁support	-741
ving	-742
▁while	-743
ash	-744
irect	-745
▁Ar	-746
▁pol	-747
view	-748
land	-749
▁sk	-750
▁provid	-751
ss	-752
unity	-753
ier	-754
▁lead	-755
▁ra	-756
▁Te	-757
▁each	-758
▁around	-759
▁book	-760
der	-761
▁love	-762
▁free	-763
▁used	-764
ced	-765
akes	-766
▁care	-767
▁end	-768
read	-769
▁mod	-770
ailable	-771
▁ser	-772
▁comple	-773
▁post	-774
▁run	-775
▁gr	-776
ather	-777
▁disc	-778
▁sim	-779
ric	-780
▁program	-781
ality	-782
▁ret	-783
▁pub	-784
ces	-785
ional	-786
ages	-787
ually	-788
▁bo	-789
▁cur	-790
▁ed	-791
ines	-792
imes	-793
ton	-794
ives	-795
▁All	-796
▁det	-797
▁really	-798
roup	-799
ple	-800
oad	-801
ars	-802
▁eas	-803
ets	-804
▁On	-805
▁child	-806
▁system	-807
▁There	-808
▁So	-809
▁num	-810
iel	-811
au	-812
ize	-813
▁follow	-814
▁trans	-815
."	-816
led	-817
ene	-818
▁count	-819
▁going	-820
▁found	-821
,”	-822
▁top	-823
ah	-824
▁form	-825
▁char	-826
▁somet	-827
iet	-828
▁three	-829
ittle	-830
▁inter	-831
▁list	-832
▁cour	-833
ames	-834
man	-835
▁still	-836
▁Bl	-837
▁fun	-838
▁How	-839
▁month	-840
▁available	-841
▁place	-842
▁del	-843
ature	-844
▁Pl	-845
▁custom	-846
ute	-847
ness	-848
▁though	-849
▁They	-850
▁feel	-851
ways	-852
▁prof	-853
▁cle	-854
▁both	-855
▁To	-856
▁few	-857
▁sub	-858
cept	-859
▁aut	-860
orn	-861
meric	-862
▁str	-863
▁happ	-864
▁week	-865
▁sign	-866
▁open	-867
▁hand	-868
ved	-869
▁gl	-870
▁pur	-871
▁say	-872
uc	-873
▁report	-874
▁health	-875
▁game	-876
▁adv	-877
att	-878
▁rep	-879
▁market	-880
ital	-881
▁different	-882
oot	-883
ired	-884
orth	-885
▁frie	-886
bers	-887
▁keep	-888
▁same	-889
ering	-890
tt	-891
▁lot	-892
▁Ex	-893
▁She	-894
▁point	-895
▁Col	-896
ween	-897
▁techn	-898
▁family	-899
▁ev	-900
▁i	-901
ology	-902
▁exp	-903
iqu	-904
▁ext	-905
▁school	-906
ining	-907
▁little	-908
▁using	-909
,"	-910
▁process	-911
ished	-912
atur	-913
▁company	-914
▁lar	-915
ata	-916
▁including	-917
▁Sc	-918
ross	-919
iving	-920
oh	-921
ants	-922
▁next	-923
▁plan	-924
▁win	-925
▁Americ	-926
ott	-927
▁fil	-928
▁real	-929
▁during	-930
▁Tr	-931
▁between	-932
thing	-933
ized	-934
▁water	-935
ger	-936
▁sol	-937
▁Ph	-938
▁import	-939
▁Q	-940
ody	-941
cent	-942
▁state	-943
▁What	-944
gg	-945
ield	-946
▁things	-947
ik	-948
ves	-949
▁met	-950
arly	-951
els	-952
▁come	-953
aut	-954
ists	-955
be	-956
▁allow	-957
▁big	-958
less	-959
aint	-960
reen	-961
▁mus	-962
▁put	-963
▁contin	-964
uss	-965
▁Or	-966
▁rece	-967
▁experience	-968
ware	-969
▁service	-970
▁opt	-971
▁build	-972
cer	-973
self	-974
▁small	-975
▁dri	-976
▁days	-977
▁appro	-978
ined	-979
iversity	-980
ex	-981
▁organ	-982
▁full	-983
ling	-984
▁since	-985
▁cent	-986
▁always	-987
▁rest	-988
▁try	-989
▁phot	-990
▁better	-991
▁cr	-992
▁sure	-993
▁When	-994
ution	-995
▁pat	-996
▁online	-997
▁pri	-998
▁quest	-999
▁ref	-1000
▁Ind	-1001
▁second	-1002
▁pass	-1003
▁something	-1004
▁var	-1005
illion	-1006
▁bel	-1007
▁interest	-1008
rand	-1009
ever	-1010
over	-1011
▁iss	-1012
▁partic	-1013
▁class	-1014
▁poss	-1015
▁gener	-1016
▁def	-1017
▁group	-1018
▁tri	-1019
▁mov	-1020
ffect	-1021
▁perform	-1022
▁hard	-1023
▁direct	-1024
▁Z	-1025
▁pay	-1026
pping	-1027
ours	-1028
▁With	-1029
▁result	-1030
▁bro	-1031
▁today	-1032
▁head	-1033
▁special	-1034
gy	-1035
▁—	-1036
▁sl	-1037
ps	-1038
▁ty	-1039
▁ve	-1040
ploy	-1041
ER	-1042
▁At	-1043
joy	-1044
▁stand	-1045
ms	-1046
work	-1047
ared	-1048
outh	-1049
▁another	-1050
▁ide	-1051
▁give	-1052
br	-1053
▁ann	-1054
▁Con	-1055
▁wom	-1056
▁provide	-1057
uck	-1058
▁got	-1059
▁cor	-1060
ccess	-1061
ior	-1062
▁Chr	-1063
ote	-1064
oor	-1065
▁Res	-1066
oney	-1067
▁meet	-1068
▁students	-1069
▁resp	-1070
istr	-1071
▁current	-1072
ense	-1073
ately	-1074
▁wr	-1075
▁without	-1076
ision	-1077
▁conf	-1078
▁Our	-1079
ients	-1080
rence	-1081
ok	-1082
ium	-1083
▁old	-1084
▁area	-1085
ley	-1086
ope	-1087
ards	-1088
▁number	-1089
▁four	-1090
▁bre	-1091
▁cost	-1092
aj	-1093
ems	-1094
ered	-1095
▁able	-1096
ically	-1097
▁soc	-1098
▁val	-1099
▁Sp	-1100
▁invest	-1101
▁must	-1102
con	-1103
▁access	-1104
▁services	-1105
▁unt	-1106
raph	-1107
ats	-1108
ird	-1109
▁ask	-1110
▁working	-1111
▁never	-1112
▁US	-1113
▁Cent	-1114
iver	-1115
▁No	-1116
stand	-1117
ww	-1118
▁webs	-1119
▁proble	-1120
▁public	-1121
▁vide	-1122
ission	-1123
▁visit	-1124
▁important	-1125
ann	-1126
▁light	-1127
pped	-1128
▁fact	-1129
let	-1130
▁sal	-1131
▁level	-1132
▁order	-1133
▁fac	-1134
ged	-1135
▁Comm	-1136
▁My	-1137
▁test	-1138
▁might	-1139
▁exc	-1140
ral	-1141
▁rese	-1142
▁product	-1143
▁local	-1144
▁night	-1145
▁season	-1146
inal	-1147
▁el	-1148
▁incre	-1149
ember	-1150
▁site	-1151
rol	-1152
▁That	-1153
▁sing	-1154
ruct	-1155
ample	-1156
▁expl	-1157
▁Mar	-1158
▁spec	-1159
▁grow	-1160
▁let	-1161
▁ca	-1162
▁proper	-1163
▁less	-1164
ording	-1165
▁enjoy	-1166
▁ob	-1167
▁past	-1168
▁event	-1169
▁products	-1170
▁Man	-1171
▁'	-1172
▁inf	-1173
▁May	-1174
▁looking	-1175
▁food	-1176
here	-1177
lection	-1178
▁within	-1179
▁profess	-1180
▁Fe	-1181
▁Is	-1182
▁data	-1183
▁making	-1184
▁pop	-1185
ertain	-1186
▁until	-1187
ases	-1188
ories	-1189
ffic	-1190
enn	-1191
ency	-1192
▁children	-1193
ently	-1194
▁University	-1195
We	-1196
gin	-1197
sh	-1198
▁job	-1199
▁offer	-1200
▁law	-1201
ery	-1202
ains	-1203
ney	-1204
urs	-1205
▁pos	-1206
eng	-1207
utes	-1208
▁power	-1209
▁view	-1210
▁turn	-1211
▁eng	-1212
▁email	-1213
ential	-1214
tend	-1215
▁oper	-1216
▁sit	-1217
▁check	-1218
▁against	-1219
ieve	-1220
▁est	-1221
▁Pr	-1222
ream	-1223
ised	-1224
▁Br	-1225
ina	-1226
▁prote	-1227
ids	-1228
ode	-1229
▁room	-1230
▁contact	-1231
IN	-1232
▁community	-1233
med	-1234
to	-1235
▁addition	-1236
▁prom	-1237
▁says	-1238
▁intern	-1239
load	-1240
▁toget	-1241
▁together	-1242
▁Fl	-1243
▁away	-1244
ivid	-1245
▁impro	-1246
▁quality	-1247
▁leg	-1248
ator	-1249
▁dist	-1250
▁creat	-1251
ills	-1252
irl	-1253
hor	-1254
▁indust	-1255
▁complete	-1256
▁news	-1257
aring	-1258
iron	-1259
ique	-1260
ret	-1261
▁App	-1262
icle	-1263
iday	-1264
agement	-1265
ified	-1266
oci	-1267
▁supp	-1268
osed	-1269
ability	-1270
▁project	-1271
▁website	-1272
▁Car	-1273
iety	-1274
ane	-1275
por	-1276
!!	-1277
▁change	-1278
co	-1279
▁success	-1280
▁dep	-1281
bo	-1282
▁learn	-1283
▁include	-1284
▁Co	-1285
pend	-1286
▁fav	-1287
▁chang	-1288
ym	-1289
▁Ste	-1290
▁detail	-1291
ism	-1292
▁offic	-1293
▁Can	-1294
▁members	-1295
▁dr	-1296
arent	-1297
son	-1298
▁buy	-1299
▁easy	-1300
▁please	-1301
rap	-1302
▁Me	-1303
aster	-1304
▁applic	-1305
ising	-1306
ury	-1307
▁name	-1308
▁pract	-1309
▁times	-1310
atures	-1311
▁along	-1312
▁equ	-1313
▁present	-1314
▁One	-1315
▁large	-1316
▁money	-1317
▁beaut	-1318
atter	-1319
augh	-1320
▁Am	-1321
aterial	-1322
the	-1323
▁Cont	-1324
iting	-1325
▁activ	-1326
vern	-1327
RE	-1328
▁employ	-1329
▁la	-1330
aff	-1331
une	-1332
▁house	-1333
ready	-1334
Th	-1335
▁course	-1336
▁expect	-1337
▁.	-1338
▁needs	-1339
ored	-1340
▁air	-1341
▁left	-1342
▁Christ	-1343
▁thing	-1344
itions	-1345
ift	-1346
sc	-1347
ably	-1348
▁cap	-1349
ider	-1350
ived	-1351
lish	-1352
▁music	-1353
▁dra	-1354
min	-1355
▁why	-1356
▁En	-1357
yle	-1358
ohn	-1359
ump	-1360
ify	-1361
▁hist	-1362
ec	-1363
ron	-1364
by	-1365
▁bas	-1366
ern	-1367
▁hum	-1368
▁video	-1369
rie	-1370
▁sw	-1371
▁account	-1372
ON	-1373
ffe	-1374
alf	-1375
ocus	-1376
veral	-1377
▁below	-1378
▁soft	-1379
▁hot	-1380
▁These	-1381
▁short	-1382
ries	-1383
▁Eng	-1384
▁line	-1385
▁live	-1386
pecial	-1387
▁opport	-1388
enef	-1389
▁create	-1390
book	-1391
▁cond	-1392
▁beh	-1393
▁...	-1394
▁perfect	-1395
uly	-1396
▁ce	-1397
▁page	-1398
▁word	-1399
▁/	-1400
▁writ	-1401
AT	-1402
▁dem	-1403
ots	-1404
▁Med	-1405
▁mar	-1406
▁Please	-1407
fort	-1408
side	-1409
ows	-1410
mber	-1411
▁govern	-1412
▁pa	-1413
artment	-1414
▁already	-1415
▁Che	-1416
▁kind	-1417
▁After	-1418
▁enough	-1419
▁ever	-1420
▁research	-1421
ured	-1422
▁makes	-1423
▁following	-1424
▁million	-1425
▁Do	-1426
▁review	-1427
▁getting	-1428
▁dev	-1429
ten	-1430
itive	-1431
ush	-1432
▁friends	-1433
▁cut	-1434
▁conne	-1435
▁trad	-1436
ee	-1437
.,	-1438
▁record	-1439
room	-1440
▁treat	-1441
▁side	-1442
▁const	-1443
vious	-1444
▁Ass	-1445
▁case	-1446
▁having	-1447
ajor	-1448
▁tell	-1449
▁Count	-1450
▁personal	-1451
▁move	-1452
▁based	-1453
▁story	-1454
viron	-1455
ention	-1456
▁John	-1457
rop	-1458
▁Your	-1459
▁Serv	-1460
▁won	-1461
unch	-1462
ips	-1463
▁Des	-1464
▁minutes	-1465
uper	-1466
▁become	-1467
uture	-1468
▁possible	-1469
osp	-1470
oice	-1471
iam	-1472
▁talk	-1473
▁city	-1474
ights	-1475
▁across	-1476
▁vers	-1477
▁share	-1478
ization	-1479
▁done	-1480
▁bit	-1481
▁camp	-1482
▁pack	-1483
▁didn	-1484
▁comes	-1485
▁men	-1486
▁understand	-1487
ead	-1488
▁several	-1489
▁--	-1490
yn	-1491
▁:	-1492
▁country	-1493
▁Tw	-1494
▁hours	-1495
▁effect	-1496
▁cou	-1497
▁purch	-1498
iven	-1499
▁benef	-1500
ES	-1501
▁mil	-1502
▁women	-1503
uff	-1504
▁net	-1505
ividual	-1506
app	-1507
aces	-1508
▁percent	-1509
▁Comp	-1510
▁educ	-1511
wards	-1512
▁focus	-1513
▁often	-1514
▁material	-1515
ball	-1516
▁social	-1517
aim	-1518
▁elect	-1519
▁Wor	-1520
idd	-1521
ances	-1522
ination	-1523
uro	-1524
ides	-1525
ober	-1526
▁quick	-1527
▁Not	-1528
▁development	-1529
▁es	-1530
▁bring	-1531
▁return	-1532
orts	-1533
▁American	-1534
ister	-1535
ienc	-1536
▁doing	-1537
▁Bro	-1538
▁School	-1539
ript	-1540
▁pie	-1541
▁X	-1542
▁far	-1543
▁hold	-1544
arl	-1545
▁mult	-1546
ted	-1547
▁body	-1548
arr	-1549
err	-1550
▁Gr	-1551
of	-1552
mend	-1553
▁pot	-1554
ference	-1555
iful	-1556
ones	-1557
AN	-1558
▁wa	-1559
ners	-1560
▁fund	-1561
▁took	-1562
ograph	-1563
▁Here	-1564
▁tre	-1565
ource	-1566
lished	-1567
▁blog	-1568
oose	-1569
itc	-1570
AR	-1571
▁State	-1572
▁doesn	-1573
reet	-1574
conom	-1575
▁jo	-1576
vironment	-1577
▁deal	-1578
lement	-1579
▁others	-1580
▁City	-1581
▁Rep	-1582
▁came	-1583
▁called	-1584
▁started	-1585
▁sum	-1586
▁rele	-1587
org	-1588
▁Inst	-1589
nder	-1590
▁least	-1591
▁months	-1592
▁Intern	-1593
▁space	-1594
acy	-1595
▁Gu	-1596
▁mom	-1597
▁future	-1598
▁orig	-1599
▁compet	-1600
▁individual	-1601
oon	-1602
lege	-1603
▁went	-1604
▁occ	-1605
▁yet	-1606
▁young	-1607
rodu	-1608
▁clean	-1609
▁non	-1610
▁mind	-1611
▁told	-1612
ai	-1613
▁five	-1614
▁early	-1615
▁series	-1616
▁control	-1617
af	-1618
utions	-1619
▁term	-1620
▁major	-1621
oll	-1622
hers	-1623
ille	-1624
ape	-1625
▁games	-1626
ained	-1627
▁comb	-1628
▁means	-1629
▁pict	-1630
▁industry	-1631
▁chall	-1632
yl	-1633
▁tool	-1634
anks	-1635
▁Min	-1636
▁ens	-1637
▁lim	-1638
▁cover	-1639
ctor	-1640
▁fore	-1641
▁ago	-1642
AS	-1643
▁low	-1644
sw	-1645
▁key	-1646
fer	-1647
ama	-1648
▁x	-1649
▁heart	-1650
▁features	-1651
▁Ed	-1652
ilt	-1653
▁tem	-1654
rew	-1655
▁price	-1656
unic	-1657
▁store	-1658
fact	-1659
jects	-1660
▁offers	-1661
▁Ab	-1662
itor	-1663
back	-1664
▁once	-1665
▁specific	-1666
come	-1667
▁range	-1668
▁thought	-1669
ges	-1670
urity	-1671
ither	-1672
ateg	-1673
▁Bo	-1674
▁Jan	-1675
sel	-1676
▁pick	-1677
illed	-1678
▁Now	-1679
eral	-1680
▁God	-1681
▁Dr	-1682
▁favor	-1683
▁appear	-1684
year	-1685
▁More	-1686
▁York	-1687
ilities	-1688
▁Ke	-1689
▁Im	-1690
▁hope	-1691
▁redu	-1692
▁discuss	-1693
OR	-1694
ibr	-1695
▁happen	-1696
▁require	-1697
yr	-1698
▁Pe	-1699
▁However	-1700
atic	-1701
It	-1702
▁mean	-1703
▁single	-1704
nes	-1705
▁step	-1706
▁close	-1707
▁upd	-1708
▁land	-1709
▁break	-1710
▁ey	-1711
▁main	-1712
▁invol	-1713
most	-1714
anies	-1715
▁Pres	-1716
ourn	-1717
▁stay	-1718
▁government	-1719
▁Em	-1720
isk	-1721
isc	-1722
//	-1723
▁Sm	-1724
ony	-1725
▁field	-1726
de	-1727
▁priv	-1728
▁United	-1729
▁beautiful	-1730
resh	-1731
cle	-1732
▁Per	-1733
▁friend	-1734
▁everything	-1735
▁Qu	-1736
▁walk	-1737
ched	-1738
▁questions	-1739
▁added	-1740
▁hig	-1741
▁Cal	-1742
▁tax	-1743
aken	-1744
▁customers	-1745
▁strong	-1746
now	-1747
▁taking	-1748
▁install	-1749
for	-1750
://	-1751
aps	-1752
ging	-1753
▁Pol	-1754
▁charact	-1755
▁wond	-1756
▁South	-1757
▁begin	-1758
▁study	-1759
ources	-1760
▁North	-1761
▁Just	-1762
▁announ	-1763
ief	-1764
ensive	-1765
▁miss	-1766
▁recom	-1767
▁travel	-1768
▁certain	-1769
▁Park	-1770
▁address	-1771
▁problem	-1772
▁By	-1773
▁County	-1774
▁actually	-1775
play	-1776
▁staff	-1777
▁tot	-1778
▁half	-1779
▁mess	-1780
▁z	-1781
aur	-1782
ew	-1783
inc	-1784
ians	-1785
▁search	-1786
▁technology	-1787
▁girl	-1788
▁media	-1789
urther	-1790
time	-1791
▁watch	-1792
▁typ	-1793
▁known	-1794
▁official	-1795
▁manag	-1796
▁National	-1797
▁six	-1798
irm	-1799
▁Pre	-1800
▁wind	-1801
▁enc	-1802
gle	-1803
atural	-1804
ural	-1805
▁front	-1806
ublic	-1807
▁Add	-1808
▁sound	-1809
▁improve	-1810
▁Post	-1811
wh	-1812
▁dig	-1813
irt	-1814
▁lat	-1815
▁content	-1816
▁Su	-1817
▁Stud	-1818
▁anal	-1819
▁track	-1820
itted	-1821
▁Mc	-1822
▁face	-1823
▁training	-1824
▁link	-1825
▁click	-1826
icy	-1827
▁ste	-1828
▁web	-1829
▁someone	-1830
ison	-1831
▁Oct	-1832
arning	-1833
▁works	-1834
▁author	-1835
▁later	-1836
▁building	-1837
not	-1838
lebr	-1839
▁host	-1840
ocu	-1841
▁Gl	-1842
▁environment	-1843
abor	-1844
cted	-1845
▁Center	-1846
▁mor	-1847
▁log	-1848
▁unique	-1849
▁everyone	-1850
▁Reg	-1851
raft	-1852
▁port	-1853
▁provides	-1854
IS	-1855
gest	-1856
▁ener	-1857
▁fall	-1858
▁cred	-1859
▁seen	-1860
▁Dep	-1861
▁film	-1862
ask	-1863
▁Day	-1864
▁prep	-1865
▁oil	-1866
▁particular	-1867
▁professional	-1868
▁aud	-1869
fully	-1870
▁Aug	-1871
▁Euro	-1872
ests	-1873
▁particip	-1874
lex	-1875
ided	-1876
unities	-1877
▁bar	-1878
ibility	-1879
▁results	-1880
▁ident	-1881
▁recommend	-1882
roll	-1883
▁press	-1884
ED	-1885
▁card	-1886
▁While	-1887
▁Will	-1888
▁whole	-1889
▁Don	-1890
aturday	-1891
▁World	-1892
rain	-1893
▁companies	-1894
ino	-1895
▁Ge	-1896
▁High	-1897
urch	-1898
▁Friday	-1899
▁office	-1900
IT	-1901
pper	-1902
▁Bar	-1903
▁March	-1904
▁color	-1905
▁events	-1906
▁anything	-1907
▁issues	-1908
EN	-1909
ancial	-1910
▁mot	-1911
▁eff	-1912
▁prob	-1913
▁mag	-1914
▁areas	-1915
▁pret	-1916
resent	-1917
▁vol	-1918
▁Some	-1919
▁comput	-1920
▁respons	-1921
ops	-1922
▁points	-1923
▁Acc	-1924
▁performance	-1925
▁near	-1926
▁pain	-1927
ster	-1928
obile	-1929
▁red	-1930
▁print	-1931
▁cook	-1932
▁Apr	-1933
itch	-1934
umb	-1935
▁given	-1936
▁history	-1937
▁econom	-1938
pecially	-1939
crib	-1940
obal	-1941
....	-1942
▁feature	-1943
go	-1944
ili	-1945
ands	-1946
▁sell	-1947
▁designed	-1948
▁above	-1949
ches	-1950
▁maint	-1951
▁skin	-1952
▁text	-1953
▁aff	-1954
▁simple	-1955
eth	-1956
▁assist	-1957
IC	-1958
my	-1959
ued	-1960
▁age	-1961
icult	-1962
▁reason	-1963
inks	-1964
In	-1965
▁size	-1966
▁question	-1967
▁dou	-1968
imate	-1969
▁according	-1970
▁repl	-1971
iod	-1972
ply	-1973
▁Sec	-1974
nding	-1975
▁black	-1976
▁Aust	-1977
head	-1978
▁htt	-1979
edd	-1980
▁pretty	-1981
▁foot	-1982
▁believe	-1983
▁Saturday	-1984
oved	-1985
ables	-1986
▁due	-1987
▁Part	-1988
▁among	-1989
▁select	-1990
AL	-1991
itter	-1992
▁Sund	-1993
▁fire	-1994
cript	-1995
▁phys	-1996
omes	-1997
ental	-1998
ledge	-1999
▁idea	-2000
ety	-2001
▁latest	-2002
▁details	-2003
▁ant	-2004
▁popular	-2005
ole	-2006
▁third	-2007
▁et	-2008
ators	-2009
▁Mr	-2010
pro	-2011
val	-2012
▁management	-2013
aining	-2014
itional	-2015
▁includes	-2016
ruction	-2017
asing	-2018
▁July	-2019
▁energy	-2020
▁items	-2021
ze	-2022
▁weeks	-2023
ouch	-2024
onday	-2025
▁sent	-2026
▁Feb	-2027
▁living	-2028
ites	-2029
▁cult	-2030
▁receive	-2031
▁fre	-2032
▁continue	-2033
▁bad	-2034
▁June	-2035
▁relations	-2036
▁Europe	-2037
vert	-2038
astic	-2039
idence	-2040
▁human	-2041
▁parent	-2042
ulation	-2043
▁Val	-2044
▁His	-2045
▁claim	-2046
aily	-2047
▁Sept	-2048
ufact	-2049
ctions	-2050
elt	-2051
▁Dav	-2052
▁sex	-2053
▁prop	-2054
▁soon	-2055
ung	-2056
▁property	-2057
▁hon	-2058
nov	-2059
▁currently	-2060
▁amount	-2061
▁entire	-2062
new	-2063
▁West	-2064
uation	-2065
▁coming	-2066
ese	-2067
though	-2068
ana	-2069
ogn	-2070
▁Off	-2071
▁kids	-2072
▁TH	-2073
▁Tra	-2074
▁From	-2075
itting	-2076
▁phone	-2077
This	-2078
cast	-2079
▁final	-2080
▁consum	-2081
▁ess	-2082
▁happy	-2083
▁taken	-2084
▁celebr	-2085
▁docu	-2086
▁member	-2087
icro	-2088
.)	-2089
▁answ	-2090
▁meas	-2091
AC	-2092
▁wanted	-2093
▁type	-2094
▁software	-2095
selves	-2096
▁experienc	-2097
▁forward	-2098
▁diff	-2099
eds	-2100
▁whether	-2101
▁Us	-2102
▁wide	-2103
▁Read	-2104
▁either	-2105
▁Bu	-2106
ires	-2107
▁El	-2108
▁value	-2109
▁concer	-2110
▁deb	-2111
▁further	-2112
ux	-2113
ilar	-2114
ival	-2115
▁isn	-2116
▁coll	-2117
used	-2118
ams	-2119
aced	-2120
▁par	-2121
▁almost	-2122
▁required	-2123
▁crit	-2124
▁held	-2125
▁white	-2126
arter	-2127
▁date	-2128
▁comfort	-2129
▁quite	-2130
▁trying	-2131
▁provided	-2132
▁summer	-2133
▁Sw	-2134
▁fit	-2135
▁Pa	-2136
▁sugg	-2137
▁needed	-2138
▁favorite	-2139
▁tit	-2140
St	-2141
ees	-2142
▁Sunday	-2143
▁opportunity	-2144
▁Jo	-2145
▁ach	-2146
aching	-2147
uary	-2148
ek	-2149
▁Cor	-2150
▁via	-2151
▁extra	-2152
▁players	-2153
▁April	-2154
▁books	-2155
▁Monday	-2156
▁network	-2157
▁cop	-2158
amer	-2159
ler	-2160
▁example	-2161
▁box	-2162
▁users	-2163
▁,	-2164
itten	-2165
▁seem	-2166
▁period	-2167
▁various	-2168
▁Health	-2169
▁options	-2170
where	-2171
▁running	-2172
gress	-2173
▁style	-2174
▁especially	-2175
▁consider	-2176
▁yourself	-2177
▁Art	-2178
▁dam	-2179
▁safe	-2180
▁previous	-2181
▁swe	-2182
▁ways	-2183
▁version	-2184
▁created	-2185
▁sle	-2186
▁Mon	-2187
▁recently	-2188
▁potential	-2189
OU	-2190
▁issue	-2191
▁common	-2192
ises	-2193
▁di	-2194
▁Inc	-2195
▁stri	-2196
▁ready	-2197
▁attend	-2198
▁morning	-2199
▁regular	-2200
▁insp	-2201
▁else	-2202
▁road	-2203
▁nice	-2204
▁throughout	-2205
▁probably	-2206
▁ensure	-2207
--	-2208
▁veh	-2209
▁received	-2210
earch	-2211
▁ball	-2212
▁Associ	-2213
▁President	-2214
▁clear	-2215
▁download	-2216
par	-2217
icles	-2218
▁engine	-2219
▁sho	-2220
erc	-2221
▁song	-2222
azing	-2223
▁lo	-2224
▁brand	-2225
▁relationship	-2226
▁takes	-2227
▁reading	-2228
mit	-2229
▁natural	-2230
▁Aut	-2231
▁States	-2232
ades	-2233
amed	-2234
▁park	-2235
▁House	-2236
ively	-2237
▁shows	-2238
▁asked	-2239
▁medical	-2240
istration	-2241
ague	-2242
▁inj	-2243
▁hit	-2244
▁choose	-2245
▁collect	-2246
▁Direct	-2247
▁Mich	-2248
▁original	-2249
▁cool	-2250
▁spr	-2251
▁couple	-2252
angu	-2253
reme	-2254
ipping	-2255
▁represent	-2256
▁bott	-2257
▁init	-2258
▁release	-2259
▁goal	-2260
▁behind	-2261
ny	-2262
apt	-2263
oid	-2264
▁Face	-2265
▁wonder	-2266
▁Soc	-2267
▁recent	-2268
▁sales	-2269
eter	-2270
▁clients	-2271
▁financial	-2272
aging	-2273
overed	-2274
▁accom	-2275
▁fresh	-2276
▁fast	-2277
▁super	-2278
▁leave	-2279
▁problems	-2280
▁anyone	-2281
▁role	-2282
face	-2283
▁Get	-2284
gs	-2285
hib	-2286
▁Ser	-2287
▁career	-2288
uge	-2289
▁Fin	-2290
bor	-2291
▁Black	-2292
ume	-2293
▁cup	-2294
ried	-2295
ville	-2296
▁model	-2297
▁article	-2298
oura	-2299
▁ful	-2300
uesday	-2301
▁meth	-2302
arth	-2303
▁ground	-2304
▁programs	-2305
▁Up	-2306
▁hol	-2307
▁fail	-2308
na	-2309
▁sun	-2310
aving	-2311
▁weeke	-2312
▁accept	-2313
▁flow	-2314
ada	-2315
ursday	-2316
▁base	-2317
medi	-2318
▁customer	-2319
▁difficult	-2320
OT	-2321
atform	-2322
▁writing	-2323
anced	-2324
urance	-2325
▁looks	-2326
▁PM	-2327
▁tour	-2328
▁polit	-2329
▁likely	-2330
ox	-2331
hel	-2332
oogle	-2333
▁paper	-2334
▁ap	-2335
▁abs	-2336
▁simply	-2337
cing	-2338
name	-2339
verage	-2340
▁inside	-2341
▁manufact	-2342
▁TV	-2343
clus	-2344
▁etc	-2345
▁mix	-2346
▁total	-2347
▁included	-2348
▁po	-2349
idge	-2350
ming	-2351
▁Int	-2352
▁risk	-2353
▁Wed	-2354
adem	-2355
aker	-2356
▁increase	-2357
▁party	-2358
▁changes	-2359
▁ele	-2360
ashing	-2361
▁board	-2362
▁education	-2363
oud	-2364
▁Her	-2365
▁October	-2366
▁action	-2367
▁former	-2368
▁meeting	-2369
Wh	-2370
▁however	-2371
▁News	-2372
▁outside	-2373
ification	-2374
uit	-2375
iple	-2376
▁match	-2377
▁Ac	-2378
▁America	-2379
▁Act	-2380
▁nothing	-2381
▁security	-2382
▁self	-2383
ground	-2384
▁contrib	-2385
▁stop	-2386
ester	-2387
▁town	-2388
▁August	-2389
▁matter	-2390
▁position	-2391
▁Af	-2392
▁ple	-2393
▁bed	-2394
▁late	-2395
istrict	-2396
▁Ob	-2397
▁systems	-2398
▁Every	-2399
icated	-2400
adu	-2401
ules	-2402
▁Bus	-2403
▁words	-2404
▁playing	-2405
▁cir	-2406
▁pan	-2407
ST	-2408
▁UK	-2409
wood	-2410
▁sat	-2411
▁impact	-2412
▁anim	-2413
▁mark	-2414
▁private	-2415
▁application	-2416
▁police	-2417
▁knowledge	-2418
▁exist	-2419
▁photos	-2420
▁method	-2421
▁longer	-2422
▁coun	-2423
▁worked	-2424
iddle	-2425
▁national	-2426
▁projects	-2427
ederal	-2428
▁ord	-2429
▁Are	-2430
▁necess	-2431
ude	-2432
▁table	-2433
▁stra	-2434
off	-2435
▁Ag	-2436
empt	-2437
elcome	-2438
▁September	-2439
ecut	-2440
▁activities	-2441
▁worth	-2442
▁recogn	-2443
▁production	-2444
str	-2445
nesday	-2446
▁Department	-2447
based	-2448
aby	-2449
iff	-2450
▁comment	-2451
▁compl	-2452
▁skills	-2453
▁true	-2454
▁general	-2455
▁Austral	-2456
▁January	-2457
iol	-2458
▁round	-2459
▁lives	-2460
▁learning	-2461
▁Tuesday	-2462
▁Thursday	-2463
ID	-2464
che	-2465
▁Then	-2466
▁introdu	-2467
ky	-2468
arden	-2469
▁signific	-2470
ING	-2471
oom	-2472
▁Sal	-2473
▁ill	-2474
▁student	-2475
▁Pat	-2476
▁lay	-2477
▁hair	-2478
▁Free	-2479
▁Nove	-2480
▁computer	-2481
▁squ	-2482
▁purchase	-2483
▁tal	-2484
ham	-2485
▁Also	-2486
ession	-2487
ett	-2488
▁Mus	-2489
▁death	-2490
▁defin	-2491
▁seems	-2492
▁Of	-2493
ci	-2494
▁hands	-2495
izing	-2496
▁communic	-2497
mon	-2498
▁rad	-2499
▁choice	-2500
▁screen	-2501
AM	-2502
▁draw	-2503
▁concern	-2504
▁leading	-2505
▁additional	-2506
▁First	-2507
▁rights	-2508
attle	-2509
▁cell	-2510
▁credit	-2511
▁located	-2512
▁variety	-2513
▁leaders	-2514
▁Facebook	-2515
▁stat	-2516
▁tick	-2517
▁drive	-2518
▁movie	-2519
▁San	-2520
arget	-2521
oring	-2522
▁file	-2523
▁fig	-2524
ipment	-2525
▁hy	-2526
▁bud	-2527
▁image	-2528
▁determ	-2529
▁amazing	-2530
aign	-2531
▁Sim	-2532
▁suggest	-2533
mercial	-2534
▁chance	-2535
▁Red	-2536
▁associ	-2537
▁rather	-2538
▁practice	-2539
▁built	-2540
▁plans	-2541
▁function	-2542
oph	-2543
▁Har	-2544
▁providing	-2545
iter	-2546
▁cal	-2547
ached	-2548
airs	-2549
light	-2550
ought	-2551
urg	-2552
pm	-2553
▁War	-2554
▁vict	-2555
▁court	-2556
▁aw	-2557
▁saf	-2558
▁cand	-2559
example	-2560
▁Out	-2561
▁touch	-2562
▁Air	-2563
▁teac	-2564
cil	-2565
▁exam	-2566
▁autom	-2567
▁Street	-2568
▁international	-2569
▁loss	-2570
▁weekend	-2571
▁Wind	-2572
▁infl	-2573
▁prior	-2574
▁prevent	-2575
▁allows	-2576
▁arri	-2577
▁Calif	-2578
▁Click	-2579
irth	-2580
ibrary	-2581
▁character	-2582
▁piece	-2583
▁treatment	-2584
cember	-2585
itchen	-2586
olution	-2587
▁http	-2588
ma	-2589
▁similar	-2590
▁Most	-2591
▁moment	-2592
gar	-2593
oke	-2594
ruary	-2595
▁clos	-2596
▁Design	-2597
▁investig	-2598
▁rate	-2599
▁AM	-2600
reg	-2601
▁commit	-2602
▁growth	-2603
imum	-2604
▁norm	-2605
OM	-2606
iber	-2607
▁Dis	-2608
ivery	-2609
▁estab	-2610
▁cause	-2611
▁user	-2612
sp	-2613
▁deg	-2614
▁lost	-2615
▁display	-2616
▁collection	-2617
▁myself	-2618
▁Cr	-2619
▁op	-2620
▁enter	-2621
▁Wednesday	-2622
unt	-2623
▁rout	-2624
ault	-2625
▁decided	-2626
▁decision	-2627
▁sil	-2628
▁inde	-2629
▁Any	-2630
▁higher	-2631
cy	-2632
▁bal	-2633
▁daily	-2634
ha	-2635
ournal	-2636
▁digital	-2637
▁November	-2638
▁purp	-2639
▁Group	-2640
▁released	-2641
▁significant	-2642
▁reported	-2643
LE	-2644
▁Home	-2645
▁woman	-2646
▁Cour	-2647
▁easily	-2648
▁cannot	-2649
▁goes	-2650
▁International	-2651
▁excell	-2652
lin	-2653
▁wall	-2654
▁Thanks	-2655
▁quickly	-2656
▁College	-2657
▁usually	-2658
amb	-2659
▁bag	-2660
▁apply	-2661
▁floor	-2662
▁expected	-2663
iant	-2664
▁involved	-2665
▁Law	-2666
▁dom	-2667
▁attack	-2668
just	-2669
▁boy	-2670
illing	-2671
▁regard	-2672
▁platform	-2673
▁capt	-2674
▁iP	-2675
▁Net	-2676
▁encoura	-2677
▁protect	-2678
ondon	-2679
▁Cons	-2680
▁agree	-2681
ael	-2682
▁serious	-2683
▁December	-2684
▁safety	-2685
▁roll	-2686
▁saw	-2687
▁dress	-2688
▁Google	-2689
▁gen	-2690
▁parents	-2691
▁mach	-2692
idents	-2693
▁played	-2694
▁Service	-2695
▁immedi	-2696
▁surpr	-2697
mas	-2698
▁warm	-2699
zz	-2700
▁integr	-2701
▁mobile	-2702
▁tast	-2703
ica	-2704
▁February	-2705
▁sn	-2706
▁club	-2707
▁langu	-2708
▁president	-2709
▁sche	-2710
▁related	-2711
hern	-2712
▁shoot	-2713
▁finish	-2714
▁ideas	-2715
▁global	-2716
▁marketing	-2717
▁tools	-2718
▁ep	-2719
▁expert	-2720
band	-2721
▁code	-2722
▁exact	-2723
ospital	-2724
asons	-2725
▁mass	-2726
▁note	-2727
avy	-2728
▁photo	-2729
izes	-2730
▁save	-2731
▁source	-2732
▁ut	-2733
▁option	-2734
▁respect	-2735
▁Brit	-2736
▁Let	-2737
▁feed	-2738
enge	-2739
iding	-2740
▁arch	-2741
▁deep	-2742
▁corre	-2743
▁Ang	-2744
▁announced	-2745
ilies	-2746
▁appe	-2747
edding	-2748
▁Well	-2749
cription	-2750
▁La	-2751
www	-2752
hood	-2753
reng	-2754
▁stock	-2755
▁sens	-2756
▁admin	-2757
▁location	-2758
▁ri	-2759
ellow	-2760
▁gets	-2761
▁David	-2762
▁costs	-2763
▁helps	-2764
▁Av	-2765
ples	-2766
▁materials	-2767
ength	-2768
▁Je	-2769
ipe	-2770
rab	-2771
▁Tex	-2772
▁huge	-2773
▁published	-2774
agn	-2775
like	-2776
AP	-2777
▁send	-2778
▁mother	-2779
▁benefits	-2780
▁English	-2781
enior	-2782
mission	-2783
ography	-2784
▁lab	-2785
oday	-2786
▁Play	-2787
▁fight	-2788
▁Over	-2789
▁hear	-2790
▁weight	-2791
rown	-2792
▁Spr	-2793
ornia	-2794
uel	-2795
vey	-2796
iction	-2797
▁images	-2798
rought	-2799
▁restaur	-2800
key	-2801
▁gar	-2802
▁Book	-2803
▁earn	-2804
ald	-2805
▁ability	-2806
▁interview	-2807
add	-2808
▁Check	-2809
▁Business	-2810
atory	-2811
▁London	-2812
ructure	-2813
▁written	-2814
akers	-2815
▁challeng	-2816
▁standard	-2817
▁gives	-2818
▁giving	-2819
▁ones	-2820
▁legal	-2821
▁sense	-2822
▁campaign	-2823
▁Sch	-2824
▁dest	-2825
▁innov	-2826
erved	-2827
▁door	-2828
▁patients	-2829
rom	-2830
▁mid	-2831
▁trust	-2832
urt	-2833
▁sus	-2834
▁wasn	-2835
▁Services	-2836
▁center	-2837
▁instead	-2838
aged	-2839
▁Produ	-2840
▁fab	-2841
▁Coun	-2842
▁heat	-2843
▁neg	-2844
▁fine	-2845
▁item	-2846
▁Great	-2847
▁target	-2848
erous	-2849
▁prem	-2850
erve	-2851
▁sold	-2852
▁White	-2853
aught	-2854
▁wish	-2855
▁Trans	-2856
▁parts	-2857
▁write	-2858
▁levels	-2859
▁lic	-2860
▁award	-2861
iring	-2862
arant	-2863
aves	-2864
▁cases	-2865
▁describ	-2866
▁picture	-2867
▁pers	-2868
▁partners	-2869
▁Web	-2870
▁dry	-2871
▁neigh	-2872
irit	-2873
▁Mod	-2874
▁Prof	-2875
▁stuff	-2876
ashington	-2877
ida	-2878
▁pull	-2879
▁conditions	-2880
▁ded	-2881
atives	-2882
▁green	-2883
▁California	-2884
▁broad	-2885
▁effic	-2886
▁Hol	-2887
board	-2888
▁Hall	-2889
put	-2890
rows	-2891
▁Program	-2892
ivity	-2893
▁began	-2894
▁sale	-2895
▁upon	-2896
istic	-2897
▁highly	-2898
▁interesting	-2899
TM	-2900
bit	-2901
OS	-2902
▁vot	-2903
▁fans	-2904
▁stories	-2905
inner	-2906
▁request	-2907
▁contract	-2908
▁remember	-2909
▁slow	-2910
▁Cle	-2911
▁emer	-2912
▁subs	-2913
▁answer	-2914
▁Techn	-2915
anch	-2916
▁comments	-2917
acing	-2918
ocol	-2919
▁bra	-2920
▁Phot	-2921
▁wood	-2922
▁Other	-2923
▁lower	-2924
▁sym	-2925
▁dead	-2926
orge	-2927
▁prim	-2928
orage	-2929
▁modern	-2930
▁player	-2931
▁cat	-2932
coming	-2933
bum	-2934
▁interested	-2935
ooth	-2936
▁reports	-2937
aches	-2938
▁except	-2939
ara	-2940
lev	-2941
▁dise	-2942
▁trip	-2943
▁teams	-2944
▁Jack	-2945
▁Texas	-2946
▁attention	-2947
▁equipment	-2948
▁paint	-2949
sy	-2950
▁fully	-2951
▁wrong	-2952
▁directly	-2953
▁starting	-2954
▁completely	-2955
▁organization	-2956
▁types	-2957
uk	-2958
wide	-2959
▁Green	-2960
mm	-2961
▁resources	-2962
▁Last	-2963
▁www	-2964
ET	-2965
urb	-2966
ager	-2967
▁document	-2968
▁themselves	-2969
apan	-2970
▁dru	-2971
▁solutions	-2972
▁stru	-2973
▁viol	-2974
ashion	-2975
▁bank	-2976
▁Washington	-2977
▁Loc	-2978
▁Rem	-2979
ament	-2980
▁multiple	-2981
▁Association	-2982
▁band	-2983
▁achieve	-2984
▁condition	-2985
▁gold	-2986
▁businesses	-2987
▁Twitter	-2988
uses	-2989
▁wait	-2990
ule	-2991
▁Go	-2992
ening	-2993
udd	-2994
▁Each	-2995
▁affect	-2996
▁opportunities	-2997
▁vac	-2998
▁Gener	-2999
urer	-3000
▁hop	-3001
EC	-3002
▁sett	-3003
▁policy	-3004
▁Par	-3005
▁led	-3006
ension	-3007
▁thinking	-3008
▁dream	-3009
▁Once	-3010
raz	-3011
rel	-3012
▁groups	-3013
▁planning	-3014
▁commercial	-3015
EO	-3016
He	-3017
ffee	-3018
olf	-3019
▁Spe	-3020
▁separ	-3021
▁applications	-3022
▁qual	-3023
▁streng	-3024
▁approach	-3025
▁families	-3026
▁solution	-3027
▁Del	-3028
▁firm	-3029
▁Class	-3030
▁express	-3031
ores	-3032
▁gave	-3033
▁Found	-3034
enty	-3035
iles	-3036
▁offe	-3037
▁consult	-3038
▁Year	-3039
▁gift	-3040
▁subject	-3041
▁Mem	-3042
AD	-3043
▁Afric	-3044
▁prices	-3045
▁successful	-3046
ties	-3047
▁positive	-3048
▁employees	-3049
arlier	-3050
▁blood	-3051
▁AN	-3052
▁race	-3053
itute	-3054
▁deliver	-3055
oul	-3056
▁join	-3057
ares	-3058
▁itself	-3059
▁King	-3060
▁shot	-3061
▁advice	-3062
▁cert	-3063
▁THE	-3064
▁eye	-3065
riend	-3066
▁hour	-3067
▁defe	-3068
▁saying	-3069
▁healthy	-3070
▁glass	-3071
▁creating	-3072
▁Sub	-3073
▁According	-3074
▁dark	-3075
ration	-3076
▁spent	-3077
▁div	-3078
▁Even	-3079
▁Why	-3080
field	-3081
▁cy	-3082
itely	-3083
ford	-3084
▁Best	-3085
▁cancer	-3086
▁Christmas	-3087
▁effective	-3088
▁serve	-3089
omen	-3090
▁sites	-3091
▁budget	-3092
▁Whe	-3093
▁Road	-3094
▁lif	-3095
▁goals	-3096
▁message	-3097
king	-3098
▁Vis	-3099
▁reve	-3100
mb	-3101
down	-3102
▁Paul	-3103
▁fair	-3104
▁India	-3105
▁average	-3106
▁Dan	-3107
▁fix	-3108
▁circ	-3109
▁Office	-3110
▁Pri	-3111
▁condu	-3112
▁East	-3113
▁reach	-3114
elling	-3115
▁Since	-3116
▁cross	-3117
aughter	-3118
▁traditional	-3119
▁extreme	-3120
▁organiz	-3121
▁director	-3122
PS	-3123
▁Hot	-3124
▁implement	-3125
Ch	-3126
▁sometimes	-3127
▁physical	-3128
▁obs	-3129
ipped	-3130
▁camer	-3131
ords	-3132
vis	-3133
▁Oh	-3134
▁opp	-3135
▁adult	-3136
▁terms	-3137
iable	-3138
▁Germ	-3139
▁plant	-3140
▁wonderful	-3141
US	-3142
rote	-3143
▁hor	-3144
▁Many	-3145
▁Rec	-3146
▁aim	-3147
▁attempt	-3148
▁limited	-3149
▁pictures	-3150
tee	-3151
▁Japan	-3152
▁See	-3153
▁Develop	-3154
▁excellent	-3155
▁dro	-3156
urning	-3157
ysis	-3158
▁mount	-3159
BC	-3160
▁emb	-3161
▁Work	-3162
imately	-3163
onse	-3164
▁brought	-3165
uth	-3166
yond	-3167
▁Ann	-3168
▁quarter	-3169
hest	-3170
▁title	-3171
▁section	-3172
ecutive	-3173
▁block	-3174
▁delivery	-3175
▁Mor	-3176
▁became	-3177
▁farm	-3178
▁arr	-3179
▁carry	-3180
▁effort	-3181
▁IN	-3182
▁kitchen	-3183
▁mention	-3184
▁developed	-3185
▁imm	-3186
inary	-3187
▁Use	-3188
iance	-3189
yright	-3190
reci	-3191
▁jud	-3192
▁fish	-3193
▁China	-3194
▁Inter	-3195
▁countries	-3196
estern	-3197
▁progress	-3198
▁necessary	-3199
▁ge	-3200
▁suppl	-3201
▁sweet	-3202
pendent	-3203
▁complex	-3204
ocks	-3205
▁baby	-3206
vest	-3207
▁felt	-3208
mitted	-3209
▁feeling	-3210
▁System	-3211
▁nation	-3212
▁promot	-3213
▁Top	-3214
▁Make	-3215
▁Dem	-3216
▁Good	-3217
hold	-3218
iced	-3219
▁birth	-3220
▁sleep	-3221
▁growing	-3222
▁impress	-3223
porate	-3224
▁Public	-3225
▁places	-3226
ocr	-3227
▁seven	-3228
▁IT	-3229
▁Flor	-3230
ffects	-3231
venue	-3232
▁Mac	-3233
▁war	-3234
▁heard	-3235
itation	-3236
gu	-3237
pite	-3238
▁weather	-3239
▁Lear	-3240
▁Open	-3241
▁region	-3242
▁Michael	-3243
haps	-3244
▁billion	-3245
▁son	-3246
itary	-3247
▁star	-3248
▁Sur	-3249
duc	-3250
▁Today	-3251
▁hotel	-3252
▁wants	-3253
Re	-3254
▁Thank	-3255
▁stick	-3256
▁college	-3257
▁construction	-3258
IL	-3259
▁bi	-3260
▁album	-3261
▁spend	-3262
▁mat	-3263
▁cold	-3264
▁medic	-3265
▁stage	-3266
▁ver	-3267
▁Port	-3268
▁Director	-3269
▁individuals	-3270
▁double	-3271
nded	-3272
▁Canada	-3273
▁Market	-3274
):	-3275
EL	-3276
aries	-3277
▁Down	-3278
▁convers	-3279
▁Russ	-3280
▁profession	-3281
ying	-3282
▁ble	-3283
▁speed	-3284
▁distrib	-3285
pects	-3286
▁exerc	-3287
rup	-3288
▁ST	-3289
aled	-3290
▁finished	-3291
fl	-3292
▁gas	-3293
istry	-3294
▁suit	-3295
ils	-3296
▁pages	-3297
▁statement	-3298
pre	-3299
ancy	-3300
▁charge	-3301
▁ing	-3302
▁spot	-3303
▁ult	-3304
▁requirements	-3305
▁finally	-3306
▁schools	-3307
▁vehicle	-3308
▁smart	-3309
▁annual	-3310
▁Windows	-3311
".	-3312
ado	-3313
wor	-3314
▁eat	-3315
useum	-3316
▁feet	-3317
▁Board	-3318
▁advant	-3319
ibly	-3320
▁blue	-3321
▁load	-3322
▁aware	-3323
unk	-3324
▁Gold	-3325
▁Research	-3326
▁straight	-3327
▁appl	-3328
arc	-3329
▁Mark	-3330
▁nearly	-3331
ato	-3332
▁Bel	-3333
▁Tom	-3334
▁tried	-3335
▁hous	-3336
▁avoid	-3337
aling	-3338
ports	-3339
▁difference	-3340
▁wrote	-3341
▁William	-3342
▁Sol	-3343
▁pattern	-3344
owl	-3345
ened	-3346
▁James	-3347
▁respond	-3348
▁challenge	-3349
▁Bre	-3350
▁dog	-3351
▁beginning	-3352
ION	-3353
▁Educ	-3354
▁About	-3355
▁helping	-3356
:||	-3357
▁benefit	-3358
▁insurance	-3359
▁situation	-3360
iment	-3361
▁essential	-3362
▁imag	-3363
ancing	-3364
unte	-3365
▁device	-3366
ceed	-3367
▁Obama	-3368
rast	-3369
▁shop	-3370
ological	-3371
▁Care	-3372
▁Indian	-3373
▁political	-3374
box	-3375
uted	-3376
▁Time	-3377
▁loved	-3378
▁Review	-3379
ube	-3380
▁nut	-3381
▁pow	-3382
overn	-3383
▁wear	-3384
▁Apple	-3385
▁Sl	-3386
▁Mag	-3387
olute	-3388
▁Find	-3389
▁activity	-3390
▁devices	-3391
▁moving	-3392
▁Met	-3393
▁lik	-3394
▁paid	-3395
▁enh	-3396
▁Club	-3397
▁Hel	-3398
▁uses	-3399
▁eight	-3400
▁exhib	-3401
▁Court	-3402
▁turned	-3403
oms	-3404
oses	-3405
▁posted	-3406
▁towards	-3407
”.	-3408
▁nature	-3409
▁Sk	-3410
▁partner	-3411
asy	-3412
▁investment	-3413
ourney	-3414
▁appreci	-3415
▁offering	-3416
▁temper	-3417
▁contain	-3418
▁largest	-3419
ivil	-3420
▁knew	-3421
▁ahead	-3422
oves	-3423
rench	-3424
idered	-3425
▁retail	-3426
▁hus	-3427
▁eyes	-3428
▁owners	-3429
▁language	-3430
▁Ant	-3431
inger	-3432
▁expand	-3433
house	-3434
ey	-3435
rences	-3436
ios	-3437
▁rent	-3438
ned	-3439
▁cas	-3440
▁connect	-3441
▁wife	-3442
ampions	-3443
▁advert	-3444
▁Rel	-3445
▁Rich	-3446
▁reduce	-3447
▁European	-3448
▁guarant	-3449
ago	-3450
cause	-3451
▁Look	-3452
▁sports	-3453
▁correct	-3454
aly	-3455
anta	-3456
▁categ	-3457
▁client	-3458
▁states	-3459
▁consist	-3460
pri	-3461
▁maybe	-3462
▁named	-3463
▁definitely	-3464
hips	-3465
▁influ	-3466
▁entertain	-3467
erry	-3468
hens	-3469
▁accur	-3470
▁concept	-3471
osing	-3472
ounds	-3473
▁runs	-3474
▁grand	-3475
▁stress	-3476
IP	-3477
change	-3478
▁Super	-3479
▁guide	-3480
▁homes	-3481
▁Have	-3482
▁thous	-3483
last	-3484
▁jobs	-3485
▁offered	-3486
estival	-3487
▁earlier	-3488
▁immediately	-3489
▁doll	-3490
▁numbers	-3491
sych	-3492
▁conc	-3493
iers	-3494
▁decl	-3495
▁Fam	-3496
esome	-3497
▁Rob	-3498
▁rates	-3499
▁Council	-3500
azine	-3501
▁rev	-3502
▁Community	-3503
▁path	-3504
▁collabor	-3505
lying	-3506
roud	-3507
▁Cop	-3508
You	-3509
alt	-3510
orrow	-3511
▁candid	-3512
▁interact	-3513
ails	-3514
▁remain	-3515
▁II	-3516
more	-3517
▁bottom	-3518
sec	-3519
dule	-3520
▁Sum	-3521
▁Cong	-3522
▁belie	-3523
▁drink	-3524
▁pieces	-3525
▁exactly	-3526
asc	-3527
lim	-3528
▁tips	-3529
▁Micro	-3530
▁View	-3531
iation	-3532
▁overall	-3533
▁max	-3534
▁federal	-3535
▁storage	-3536
vin	-3537
icious	-3538
▁Custom	-3539
▁opening	-3540
▁demand	-3541
▁Two	-3542
place	-3543
▁surround	-3544
▁Cur	-3545
▁histor	-3546
▁Bay	-3547
orial	-3548
▁Rober	-3549
▁adjust	-3550
ulations	-3551
▁shipping	-3552
▁strateg	-3553
▁Internet	-3554
▁active	-3555
▁threat	-3556
ram	-3557
▁Win	-3558
▁looked	-3559
oma	-3560
▁ten	-3561
▁occas	-3562
▁length	-3563
inated	-3564
▁served	-3565
▁conference	-3566
ico	-3567
iny	-3568
▁IS	-3569
▁guys	-3570
▁rock	-3571
▁button	-3572
▁garden	-3573
▁Florida	-3574
▁acqu	-3575
▁Police	-3576
▁easier	-3577
▁Angel	-3578
yd	-3579
order	-3580
undred	-3581
▁Island	-3582
▁father	-3583
oly	-3584
▁bath	-3585
▁speak	-3586
▁attract	-3587
If	-3588
▁normal	-3589
▁thanks	-3590
dom	-3591
umn	-3592
▁Love	-3593
▁thank	-3594
▁bill	-3595
▁People	-3596
▁background	-3597
illa	-3598
rial	-3599
▁born	-3600
arily	-3601
▁girls	-3602
rig	-3603
▁Ev	-3604
▁Det	-3605
▁wedding	-3606
care	-3607
▁lots	-3608
▁damage	-3609
roid	-3610
▁Big	-3611
▁fat	-3612
▁pet	-3613
bl	-3614
ses	-3615
▁Ty	-3616
▁culture	-3617
▁replace	-3618
▁creative	-3619
▁internet	-3620
▁completed	-3621
▁assess	-3622
OL	-3623
▁Call	-3624
▁prec	-3625
aduate	-3626
atever	-3627
mod	-3628
que	-3629
▁Life	-3630
▁Team	-3631
▁wine	-3632
▁Company	-3633
▁husband	-3634
ij	-3635
▁coach	-3636
▁beyond	-3637
aith	-3638
▁cards	-3639
ipp	-3640
▁cash	-3641
▁Child	-3642
▁haven	-3643
▁altern	-3644
ota	-3645
▁Matt	-3646
▁guy	-3647
phone	-3648
▁depend	-3649
▁setting	-3650
leg	-3651
▁bul	-3652
▁Back	-3653
▁Show	-3654
▁miles	-3655
▁er	-3656
antly	-3657
force	-3658
▁transport	-3659
▁Management	-3660
ustain	-3661
body	-3662
ston	-3663
wise	-3664
▁emot	-3665
▁behav	-3666
▁driving	-3667
▁cream	-3668
▁response	-3669
iling	-3670
▁pred	-3671
▁estate	-3672
ously	-3673
het	-3674
▁USA	-3675
oving	-3676
isions	-3677
▁owner	-3678
▁Australia	-3679
friend	-3680
▁Pet	-3681
▁Sun	-3682
▁cho	-3683
error	-3684
▁Contact	-3685
izz	-3686
▁excited	-3687
▁selection	-3688
▁Ir	-3689
ales	-3690
anging	-3691
▁Ret	-3692
▁middle	-3693
▁efforts	-3694
▁particularly	-3695
▁Plan	-3696
▁Pal	-3697
itect	-3698
icks	-3699
▁Dri	-3700
▁helped	-3701
door	-3702
ustr	-3703
▁Lake	-3704
▁doub	-3705
▁colors	-3706
▁inform	-3707
▁Ve	-3708
aper	-3709
▁files	-3710
▁allowed	-3711
▁lines	-3712
▁existing	-3713
▁Bank	-3714
▁satis	-3715
▁patient	-3716
▁comfortable	-3717
istered	-3718
▁welcome	-3719
▁considered	-3720
▁responsible	-3721
▁clot	-3722
▁drop	-3723
▁truly	-3724
▁coffee	-3725
▁understanding	-3726
DA	-3727
▁plus	-3728
▁Govern	-3729
▁Thom	-3730
▁measure	-3731
set	-3732
▁economic	-3733
▁Yes	-3734
oming	-3735
▁frame	-3736
▁slight	-3737
▁journey	-3738
isl	-3739
▁Dec	-3740
▁indic	-3741
▁degree	-3742
▁ingred	-3743
▁himself	-3744
bon	-3745
▁purpose	-3746
▁tom	-3747
▁surv	-3748
▁changed	-3749
▁liter	-3750
▁mission	-3751
free	-3752
nown	-3753
ences	-3754
onstr	-3755
ona	-3756
▁Although	-3757
EM	-3758
▁pen	-3759
ologies	-3760
▁models	-3761
reed	-3762
▁train	-3763
▁winter	-3764
▁prot	-3765
▁stream	-3766
▁highest	-3767
ads	-3768
see	-3769
encies	-3770
▁prefer	-3771
▁seeing	-3772
▁strugg	-3773
▁evening	-3774
press	-3775
▁Take	-3776
▁artist	-3777
▁talking	-3778
OW	-3779
▁Camp	-3780
▁Phil	-3781
▁afford	-3782
▁Information	-3783
▁Str	-3784
▁sty	-3785
▁Smith	-3786
▁fashion	-3787
▁Republic	-3788
▁gun	-3789
▁disease	-3790
▁pool	-3791
▁absolute	-3792
OV	-3793
▁Sen	-3794
▁shopping	-3795
raw	-3796
oman	-3797
apter	-3798
▁River	-3799
▁Church	-3800
met	-3801
soft	-3802
▁Mart	-3803
▁lack	-3804
▁appoint	-3805
▁heavy	-3806
▁letter	-3807
rem	-3808
▁Color	-3809
▁British	-3810
▁daughter	-3811
▁fem	-3812
▁Rock	-3813
▁cast	-3814
▁brother	-3815
rey	-3816
▁Sing	-3817
▁flav	-3818
porary	-3819
▁occur	-3820
▁smooth	-3821
▁opin	-3822
▁increased	-3823
▁Jes	-3824
▁Music	-3825
▁moved	-3826
▁proud	-3827
▁couldn	-3828
▁launch	-3829
▁analysis	-3830
▁organizations	-3831
dd	-3832
▁PC	-3833
tion	-3834
▁mer	-3835
fit	-3836
▁links	-3837
gery	-3838
▁obt	-3839
▁Water	-3840
▁craft	-3841
▁church	-3842
▁compon	-3843
▁Blue	-3844
▁fill	-3845
▁rules	-3846
▁shared	-3847
▁spring	-3848
eria	-3849
uled	-3850
▁mail	-3851
▁Under	-3852
▁sched	-3853
▁Because	-3854
ronic	-3855
chan	-3856
▁Special	-3857
▁reviews	-3858
▁senior	-3859
▁hundred	-3860
IM	-3861
▁onto	-3862
▁whose	-3863
bed	-3864
▁Brown	-3865
net	-3866
▁fan	-3867
icing	-3868
▁Power	-3869
▁decor	-3870
▁secure	-3871
▁machine	-3872
imal	-3873
▁spread	-3874
▁u	-3875
▁frequ	-3876
▁score	-3877
ocolate	-3878
▁spirit	-3879
▁residents	-3880
amic	-3881
▁Hum	-3882
▁trade	-3883
▁science	-3884
vant	-3885
▁fra	-3886
▁Wood	-3887
▁appropri	-3888
▁officials	-3889
▁Sam	-3890
▁unit	-3891
▁died	-3892
hone	-3893
▁gone	-3894
▁manager	-3895
▁pressure	-3896
▁Like	-3897
▁challenges	-3898
TS	-3899
ady	-3900
▁clin	-3901
▁extend	-3902
▁instruct	-3903
▁dedicated	-3904
▁competition	-3905
▁Mount	-3906
▁Char	-3907
▁session	-3908
▁fant	-3909
▁Follow	-3910
▁happened	-3911
rian	-3912
▁Food	-3913
▁Mary	-3914
▁sort	-3915
ulated	-3916
▁initial	-3917
▁Fire	-3918
▁trou	-3919
▁Media	-3920
▁District	-3921
BA	-3922
icon	-3923
▁characters	-3924
▁basic	-3925
▁camera	-3926
▁holiday	-3927
azon	-3928
ategy	-3929
▁Enter	-3930
▁powerful	-3931
▁Institute	-3932
▁produce	-3933
▁beg	-3934
istics	-3935
▁Press	-3936
osition	-3937
▁dating	-3938
ette	-3939
asp	-3940
▁Hist	-3941
▁reasons	-3942
▁increasing	-3943
icken	-3944
▁shown	-3945
▁sugar	-3946
▁incred	-3947
▁extremely	-3948
▁rob	-3949
▁chem	-3950
▁Education	-3951
oos	-3952
▁AC	-3953
inese	-3954
▁volunte	-3955
▁disp	-3956
▁package	-3957
▁payment	-3958
RA	-3959
▁eval	-3960
▁guests	-3961
▁aren	-3962
▁snow	-3963
▁leader	-3964
▁biggest	-3965
▁TO	-3966
▁alone	-3967
▁object	-3968
▁proced	-3969
▁Sa	-3970
rowd	-3971
▁basis	-3972
▁disapp	-3973
▁supply	-3974
▁General	-3975
orney	-3976
▁Star	-3977
ifying	-3978
olic	-3979
▁laws	-3980
▁breat	-3981
▁graph	-3982
▁solid	-3983
▁forget	-3984
▁continues	-3985
LC	-3986
▁cars	-3987
▁guid	-3988
▁voice	-3989
▁experienced	-3990
▁Lou	-3991
▁mis	-3992
▁brows	-3993
rapy	-3994
▁arrest	-3995
▁passed	-3996
▁schedule	-3997
ken	-3998
omb	-3999
uing	-4000
▁egg	-4001
▁passion	-4002
▁dang	-4003
▁fear	-4004
▁guess	-4005
▁scene	-4006
esterday	-4007
▁	-4008
e	-4009
t	-4010
a	-4011
o	-4012
i	-4013
n	-4014
s	-4015
r	-4016
h	-4017
l	-4018
d	-4019
c	-4020
u	-4021
m	-4022
p	-4023
g	-4024
f	-4025
y	-4026
w	-4027
b	-4028
.	-4029
v	-4030
,	-4031
k	-4032
T	-4033
I	-4034
S	-4035
A	-4036
-	-4037
C	-4038
0	-4039
1	-4040
M	-4041
P	-4042
B	-4043
x	-4044
2	-4045
W	-4046
D	-4047
R	-4048
E	-4049
H	-4050
F	-4051
L	-4052
O	-4053
N	-4054
’	-4055
'	-4056
:	-4057
G	-4058
j	-4059
)	-4060
3	-4061
(	-4062
z	-4063
5	-4064
q	-4065
"	-4066
U	-4067
4	-4068
J	-4069
9	-4070
6	-4071
8	-4072
V	-4073
Y	-4074
K	-4075
7	-4076
!	-4077
|	-4078
/	-4079
?	-4080
“	-4081
”	-4082
;	-4083
–	-4084
&	-4085
$	-4086
—	-4087
Q	-4088
X	-4089
%	-4090
Z	-4091
