<pad>	0
<s>	0
</s>	0
<unk>	0
▁t	-0
▁a	-1
in	-2
he	-3
re	-4
on	-5
er	-6
▁the	-7
▁s	-8
▁w	-9
or	-10
at	-11
nd	-12
ou	-13
▁c	-14
it	-15
es	-16
▁f	-17
is	-18
ing	-19
en	-20
▁b	-21
▁p	-22
▁o	-23
an	-24
ed	-25
▁to	-26
al	-27
▁m	-28
ar	-29
▁and	-30
▁in	-31
▁of	-32
▁d	-33
le	-34
ic	-35
as	-36
▁h	-37
om	-38
ion	-39
▁th	-40
il	-41
▁T	-42
▁l	-43
ent	-44
ve	-45
▁I	-46
ro	-47
st	-48
▁y	-49
▁e	-50
▁re	-51
▁n	-52
▁S	-53
▁g	-54
et	-55
ct	-56
▁A	-57
▁C	-58
▁you	-59
ly	-60
ay	-61
id	-62
▁for	-63
▁on	-64
▁is	-65
ot	-66
▁be	-67
ow	-68
ol	-69
am	-70
ac	-71
ig	-72
us	-73
ad	-74
el	-75
▁M	-76
im	-77
ver	-78
ith	-79
ut	-80
▁st	-81
▁P	-82
ation	-83
▁with	-84
ur	-85
▁B	-86
▁that	-87
ir	-88
▁W	-89
ch	-90
▁he	-91
▁it	-92
▁The	-93
ce	-94
ill	-95
ers	-96
un	-97
▁al	-98
▁D	-99
ul	-100
▁an	-101
▁H	-102
▁F	-103
out	-104
ra	-105
ke	-106
▁pro	-107
▁wh	-108
▁as	-109
▁are	-110
se	-111
ter	-112
▁we	-113
▁ha	-114
▁R	-115
oo	-116
if	-117
ge	-118
our	-119
pp	-120
▁at	-121
ate	-122
ess	-123
▁com	-124
▁or	-125
▁con	-126
▁L	-127
her	-128
ore	-129
est	-130
▁fr	-131
ment	-132
igh	-133
▁-	-134
ab	-135
▁N	-136
▁se	-137
▁ne	-138
ld	-139
ort	-140
▁G	-141
▁E	-142
ri	-143
ist	-144
▁(	-145
▁your	-146
op	-147
▁O	-148
▁ex	-149
em	-150
ure	-151
ity	-152
▁r	-153
ant	-154
qu	-155
▁v	-156
▁was	-157
art	-158
ust	-159
▁have	-160
ive	-161
um	-162
▁this	-163
▁from	-164
pe	-165
▁de	-166
oc	-167
▁sh	-168
th	-169
ain	-170
up	-171
ies	-172
▁will	-173
▁by	-174
ight	-175
▁ch	-176
and	-177
os	-178
▁can	-179
ie	-180
nt	-181
all	-182
▁us	-183
ome	-184
▁not	-185
ard	-186
ud	-187
▁le	-188
res	-189
▁J	-190
ast	-191
..	-192
ost	-193
▁pl	-194
ear	-195
▁ab	-196
ack	-197
▁su	-198
iv	-199
▁wor	-200
gh	-201
▁all	-202
rou	-203
ide	-204
ould	-205
▁j	-206
ell	-207
ial	-208
te	-209
ak	-210
ine	-211
od	-212
ag	-213
are	-214
▁has	-215
ice	-216
▁U	-217
▁Th	-218
▁do	-219
age	-220
▁k	-221
ook	-222
fe	-223
▁ad	-224
▁me	-225
ip	-226
▁In	-227
▁comp	-228
▁but	-229
▁up	-230
▁out	-231
ake	-232
per	-233
red	-234
▁whe	-235
ions	-236
ally	-237
pt	-238
ry	-239
og	-240
one	-241
▁more	-242
ail	-243
able	-244
ind	-245
▁my	-246
ite	-247
▁our	-248
ther	-249
▁en	-250
▁“	-251
very	-252
▁Y	-253
▁sa	-254
▁so	-255
ich	-256
ime	-257
cc	-258
▁cl	-259
ong	-260
▁their	-261
▁K	-262
ated	-263
ood	-264
ame	-265
orm	-266
▁St	-267
▁they	-268
▁one	-269
▁te	-270
ber	-271
ace	-272
ike	-273
iz	-274
▁about	-275
so	-276
ous	-277
du	-278
ick	-279
ase	-280
ans	-281
▁"	-282
▁V	-283
pl	-284
▁cont	-285
act	-286
ia	-287
▁im	-288
▁work	-289
▁un	-290
▁who	-291
ree	-292
cl	-293
ire	-294
▁fe	-295
ign	-296
▁off	-297
▁his	-298
▁man	-299
ue	-300
ff	-301
ance	-302
▁go	-303
ll	-304
ach	-305
▁year	-306
▁new	-307
▁tr	-308
ays	-309
ne	-310
reat	-311
▁It	-312
ction	-313
ub	-314
ib	-315
ult	-316
▁app	-317
erv	-318
und	-319
▁We	-320
ap	-321
▁Ch	-322
ass	-323
▁qu	-324
ep	-325
▁res	-326
ary	-327
ark	-328
▁sp	-329
▁per	-330
ations	-331
ile	-332
ove	-333
form	-334
▁int	-335
▁get	-336
▁also	-337
▁time	-338
▁which	-339
ount	-340
ven	-341
▁like	-342
own	-343
▁other	-344
ents	-345
▁some	-346
ond	-347
ord	-348
▁any	-349
ings	-350
vel	-351
av	-352
▁been	-353
ical	-354
▁over	-355
▁part	-356
ress	-357
▁This	-358
▁dis	-359
ks	-360
▁He	-361
ors	-362
ence	-363
▁said	-364
▁sc	-365
▁rec	-366
▁ar	-367
ition	-368
▁them	-369
▁ag	-370
▁when	-371
▁pe	-372
ild	-373
port	-374
▁her	-375
ound	-376
ough	-377
▁kn	-378
ose	-379
ob	-380
irst	-381
low	-382
▁just	-383
mer	-384
int	-385
▁ro	-386
ov	-387
ck	-388
ish	-389
▁what	-390
oy	-391
▁pr	-392
ru	-393
▁spe	-394
▁pre	-395
▁there	-396
ens	-397
wn	-398
▁acc	-399
day	-400
▁if	-401
ren	-402
▁than	-403
▁would	-404
▁need	-405
▁Re	-406
▁had	-407
vers	-408
▁its	-409
▁were	-410
ink	-411
fter	-412
ning	-413
▁am	-414
ater	-415
...	-416
▁des	-417
old	-418
itt	-419
clud	-420
ade	-421
rough	-422
▁tw	-423
▁into	-424
lp	-425
ory	-426
use	-427
ople	-428
ool	-429
ang	-430
▁first	-431
▁how	-432
▁bec	-433
▁help	-434
lic	-435
hed	-436
ons	-437
▁add	-438
anc	-439
ft	-440
▁make	-441
amp	-442
gr	-443
▁bl	-444
▁look	-445
▁–	-446
▁Wh	-447
▁prov	-448
▁col	-449
▁includ	-450
▁people	-451
▁comm	-452
▁produ	-453
▁You	-454
▁Ne	-455
ual	-456
▁know	-457
ful	-458
▁she	-459
ian	-460
ments	-461
ates	-462
iew	-463
round	-464
▁em	-465
▁every	-466
▁back	-467
▁only	-468
▁serv	-469
tern	-470
les	-471
ious	-472
▁no	-473
▁may	-474
rent	-475
▁through	-476
▁bu	-477
ict	-478
▁most	-479
cts	-480
ating	-481
▁see	-482
▁want	-483
▁two	-484
▁ph	-485
com	-486
pport	-487
▁As	-488
xt	-489
we	-490
ities	-491
ices	-492
iss	-493
▁use	-494
▁well	-495
ont	-496
▁bet	-497
▁after	-498
▁If	-499
ise	-500
hing	-501
▁ind	-502
ause	-503
▁play	-504
▁Se	-505
ph	-506
▁und	-507
je	-508
▁&	-509
▁co	-510
ife	-511
▁|	-512
ock	-513
ily	-514
▁stud	-515
lect	-516
row	-517
▁act	-518
ting	-519
iness	-520
▁fl	-521
hen	-522
▁years	-523
▁Com	-524
▁Un	-525
urn	-526
ts	-527
▁$	-528
enc	-529
aw	-530
▁these	-531
▁tra	-532
▁An	-533
fore	-534
▁cons	-535
▁under	-536
als	-537
cial	-538
ange	-539
▁exper	-540
bs	-541
aking	-542
▁ke	-543
oth	-544
▁now	-545
ures	-546
ational	-547
▁very	-548
▁Pro	-549
▁wee	-550
▁bus	-551
▁good	-552
▁gu	-553
ased	-554
vent	-555
▁And	-556
formation	-557
▁many	-558
▁sm	-559
get	-560
▁way	-561
any	-562
▁reg	-563
erson	-564
oint	-565
ific	-566
ward	-567
▁De	-568
ert	-569
ility	-570
▁start	-571
▁fin	-572
▁dif	-573
▁could	-574
rit	-575
lease	-576
▁great	-577
▁imp	-578
ork	-579
uch	-580
▁day	-581
fect	-582
▁rem	-583
▁Sh	-584
yst	-585
▁rel	-586
ience	-587
ible	-588
▁even	-589
▁For	-590
uring	-591
ty	-592
▁show	-593
▁high	-594
oss	-595
ics	-596
▁sec	-597
ull	-598
▁own	-599
nds	-600
velop	-601
▁inv	-602
▁where	-603
▁here	-604
▁don	-605
▁inc	-606
▁down	-607
).	-608
▁ent	-609
ident	-610
hes	-611
olog	-612
cess	-613
▁loc	-614
arch	-615
▁right	-616
ble	-617
▁then	-618
chool	-619
▁home	-620
▁should	-621
▁Al	-622
▁New	-623
elf	-624
alth	-625
The	-626
▁ass	-627
ied	-628
▁br	-629
its	-630
ited	-631
▁find	-632
ath	-633
air	-634
ular	-635
▁read	-636
▁too	-637
▁ac	-638
hip	-639
▁av	-640
▁set	-641
ix	-642
▁car	-643
▁fam	-644
ner	-645
▁information	-646
▁mon	-647
gan	-648
line	-649
▁best	-650
▁last	-651
ys	-652
▁min	-653
gram	-654
▁take	-655
io	-656
▁design	-657
▁Cl	-658
pect	-659
ract	-660
▁long	-661
ason	-662
▁did	-663
▁inst	-664
▁much	-665
omet	-666
▁che	-667
||	-668
erm	-669
▁Be	-670
▁business	-671
ystem	-672
▁because	-673
▁before	-674
other	-675
ank	-676
▁dec	-677
ues	-678
▁But	-679
▁att	-680
▁ins	-681
▁Fr	-682
.”	-683
▁made	-684
▁team	-685
ative	-686
▁call	-687
▁Le	-688
▁him	-689
pr	-690
▁sur	-691
pen	-692
atch	-693
▁cre	-694
rib	-695
me	-696
▁think	-697
ject	-698
ollow	-699
az	-700
▁again	-701
▁world	-702
way	-703
ax	-704
ale	-705
ug	-706
▁Ad	-707
▁art	-708
▁mem	-709
▁does	-710
alk	-711
),	-712
▁vis	-713
arket	-714
▁being	-715
▁pres	-716
ave	-717
▁develop	-718
▁person	-719
oun	-720
▁requ	-721
arn	-722
ustom	-723
ower	-724
chn	-725
rest	-726
▁inte	-727
arm	-728
ient	-729
▁life	-730
▁those	-731
ener	-732
▁diffe	-733
▁such	-734
ins	-735
▁med	-736
ng	-737
ivers	-738
ince	-739
ouse	-740
▁support	-741
ving	-742
▁while	-743
ash	-744
irect	-745
▁Ar	-746
▁pol	-747
view	-748
land	-749
▁sk	-750
▁provid	-751
ss	-752
unity	-753
ier	-754
▁lead	-755
▁ra	-756
▁Te	-757
▁each	-758
▁around	-759
▁book	-760
der	-761
▁love	-762
▁free	-763
▁used	-764
ced	-765
akes	-766
▁care	-767
▁end	-768
read	-769
▁mod	-770
ailable	-771
▁ser	-772
▁comple	-773
▁post	-774
▁run	-775
▁gr	-776
ather	-777
▁disc	-778
▁sim	-779
ric	-780
▁program	-781
ality	-782
▁ret	-783
▁pub	-784
ces	-785
ional	-786
ages	-787
ually	-788
▁bo	-789
▁cur	-790
▁ed	-791
ines	-792
imes	-793
ton	-794
ives	-795
▁All	-796
▁det	-797
▁really	-798
roup	-799
ple	-800
oad	-801
ars	-802
▁eas	-803
ets	-804
▁On	-805
▁child	-806
▁system	-807
▁There	-808
▁So	-809
▁num	-810
iel	-811
au	-812
ize	-813
▁follow	-814
▁trans	-815
."	-816
led	-817
ene	-818
▁count	-819
▁going	-820
▁found	-821
,”	-822
▁top	-823
ah	-824
▁form	-825
▁char	-826
▁somet	-827
iet	-828
▁three	-829
ittle	-830
▁inter	-831
▁list	-832
▁cour	-833
ames	-834
man	-835
▁still	-836
▁Bl	-837
▁fun	-838
▁How	-839
▁month	-840
▁available	-841
▁place	-842
▁del	-843
ature	-844
▁Pl	-845
▁custom	-846
ute	-847
ness	-848
▁though	-849
▁They	-850
▁feel	-851
ways	-852
▁prof	-853
▁cle	-854
▁both	-855
▁To	-856
▁few	-857
▁sub	-858
cept	-859
▁aut	-860
orn	-861
meric	-862
▁str	-863
▁happ	-864
▁week	-865
▁sign	-866
▁open	-867
▁hand	-868
ved	-869
▁gl	-870
▁pur	-871
▁say	-872
uc	-873
▁report	-874
▁health	-875
▁game	-876
▁adv	-877
att	-878
▁rep	-879
▁market	-880
ital	-881
▁different	-882
oot	-883
ired	-884
orth	-885
▁frie	-886
bers	-887
▁keep	-888
▁same	-889
ering	-890
tt	-891
▁lot	-892
▁Ex	-893
▁She	-894
▁point	-895
▁Col	-896
ween	-897
▁techn	-898
▁family	-899
▁ev	-900
▁i	-901
ology	-902
▁exp	-903
iqu	-904
▁ext	-905
▁school	-906
ining	-907
▁little	-908
▁using	-909
,"	-910
▁process	-911
ished	-912
atur	-913
▁company	-914
▁lar	-915
ata	-916
▁including	-917
▁Sc	-918
ross	-919
iving	-920
oh	-921
ants	-922
▁next	-923
▁plan	-924
▁win	-925
▁Americ	-926
ott	-927
▁fil	-928
▁real	-929
▁during	-930
▁Tr	-931
▁between	-932
thing	-933
ized	-934
▁water	-935
▁	-936
e	-937
t	-938
a	-939
o	-940
i	-941
n	-942
s	-943
r	-944
h	-945
l	-946
d	-947
c	-948
u	-949
m	-950
p	-951
g	-952
f	-953
y	-954
w	-955
b	-956
.	-957
v	-958
,	-959
k	-960
T	-961
I	-962
S	-963
A	-964
-	-965
C	-966
0	-967
1	-968
M	-969
P	-970
B	-971
x	-972
2	-973
W	-974
D	-975
R	-976
E	-977
H	-978
F	-979
L	-980
O	-981
N	-982
’	-983
'	-984
:	-985
G	-986
j	-987
)	-988
3	-989
(	-990
z	-991
5	-992
q	-993
"	-994
U	-995
4	-996
J	-997
9	-998
6	-999
8	-1000
V	-1001
Y	-1002
K	-1003
7	-1004
!	-1005
|	-1006
/	-1007
?	-1008
“	-1009
”	-1010
;	-1011
–	-1012
&	-1013
$	-1014
—	-1015
Q	-1016
X	-1017
%	-1018
Z	-1019
